#include "model_data.h"
const unsigned char breathing_rate_model_tflite[] = {
  0x1c, 0x00, 0x00, 0x00, 0x54, 0x46, 0x4c, 0x33, 0x14, 0x00, 0x20, 0x00,
  0x1c, 0x00, 0x18, 0x00, 0x14, 0x00, 0x10, 0x00, 0x0c, 0x00, 0x00, 0x00,
  0x08, 0x00, 0x04, 0x00, 0x14, 0x00, 0x00, 0x00, 0x1c, 0x00, 0x00, 0x00,
  0x90, 0x00, 0x00, 0x00, 0xe8, 0x00, 0x00, 0x00, 0x28, 0x31, 0x00, 0x00,
  0x38, 0x31, 0x00, 0x00, 0x9c, 0x37, 0x00, 0x00, 0x03, 0x00, 0x00, 0x00,
  0x01, 0x00, 0x00, 0x00, 0x10, 0x00, 0x00, 0x00, 0x00, 0x00, 0x0a, 0x00,
  0x10, 0x00, 0x0c, 0x00, 0x08, 0x00, 0x04, 0x00, 0x0a, 0x00, 0x00, 0x00,
  0x0c, 0x00, 0x00, 0x00, 0x1c, 0x00, 0x00, 0x00, 0x38, 0x00, 0x00, 0x00,
  0x0f, 0x00, 0x00, 0x00, 0x73, 0x65, 0x72, 0x76, 0x69, 0x6e, 0x67, 0x5f,
  0x64, 0x65, 0x66, 0x61, 0x75, 0x6c, 0x74, 0x00, 0x01, 0x00, 0x00, 0x00,
  0x04, 0x00, 0x00, 0x00, 0x98, 0xff, 0xff, 0xff, 0x0c, 0x00, 0x00, 0x00,
  0x04, 0x00, 0x00, 0x00, 0x07, 0x00, 0x00, 0x00, 0x64, 0x65, 0x6e, 0x73,
  0x65, 0x5f, 0x33, 0x00, 0x01, 0x00, 0x00, 0x00, 0x04, 0x00, 0x00, 0x00,
  0xe2, 0xcf, 0xff, 0xff, 0x04, 0x00, 0x00, 0x00, 0x0b, 0x00, 0x00, 0x00,
  0x64, 0x65, 0x6e, 0x73, 0x65, 0x5f, 0x69, 0x6e, 0x70, 0x75, 0x74, 0x00,
  0x02, 0x00, 0x00, 0x00, 0x34, 0x00, 0x00, 0x00, 0x04, 0x00, 0x00, 0x00,
  0xdc, 0xff, 0xff, 0xff, 0x0f, 0x00, 0x00, 0x00, 0x04, 0x00, 0x00, 0x00,
  0x13, 0x00, 0x00, 0x00, 0x43, 0x4f, 0x4e, 0x56, 0x45, 0x52, 0x53, 0x49,
  0x4f, 0x4e, 0x5f, 0x4d, 0x45, 0x54, 0x41, 0x44, 0x41, 0x54, 0x41, 0x00,
  0x08, 0x00, 0x0c, 0x00, 0x08, 0x00, 0x04, 0x00, 0x08, 0x00, 0x00, 0x00,
  0x0e, 0x00, 0x00, 0x00, 0x04, 0x00, 0x00, 0x00, 0x13, 0x00, 0x00, 0x00,
  0x6d, 0x69, 0x6e, 0x5f, 0x72, 0x75, 0x6e, 0x74, 0x69, 0x6d, 0x65, 0x5f,
  0x76, 0x65, 0x72, 0x73, 0x69, 0x6f, 0x6e, 0x00, 0x10, 0x00, 0x00, 0x00,
  0x3c, 0x30, 0x00, 0x00, 0x34, 0x30, 0x00, 0x00, 0xa4, 0x2f, 0x00, 0x00,
  0x4c, 0x2f, 0x00, 0x00, 0x38, 0x2f, 0x00, 0x00, 0x28, 0x2e, 0x00, 0x00,
  0x18, 0x29, 0x00, 0x00, 0x08, 0x09, 0x00, 0x00, 0xf8, 0x00, 0x00, 0x00,
  0xa8, 0x00, 0x00, 0x00, 0xa0, 0x00, 0x00, 0x00, 0x98, 0x00, 0x00, 0x00,
  0x90, 0x00, 0x00, 0x00, 0x88, 0x00, 0x00, 0x00, 0x68, 0x00, 0x00, 0x00,
  0x04, 0x00, 0x00, 0x00, 0x9a, 0xd0, 0xff, 0xff, 0x04, 0x00, 0x00, 0x00,
  0x54, 0x00, 0x00, 0x00, 0x0c, 0x00, 0x00, 0x00, 0x08, 0x00, 0x0e, 0x00,
  0x08, 0x00, 0x04, 0x00, 0x08, 0x00, 0x00, 0x00, 0x10, 0x00, 0x00, 0x00,
  0x24, 0x00, 0x00, 0x00, 0x00, 0x00, 0x06, 0x00, 0x08, 0x00, 0x04, 0x00,
  0x06, 0x00, 0x00, 0x00, 0x04, 0x00, 0x00, 0x00, 0x00, 0x00, 0x00, 0x00,
  0x00, 0x00, 0x0a, 0x00, 0x10, 0x00, 0x0c, 0x00, 0x08, 0x00, 0x04, 0x00,
  0x0a, 0x00, 0x00, 0x00, 0x02, 0x00, 0x00, 0x00, 0x02, 0x00, 0x00, 0x00,
  0x04, 0x00, 0x00, 0x00, 0x06, 0x00, 0x00, 0x00, 0x32, 0x2e, 0x31, 0x33,
  0x2e, 0x30, 0x00, 0x00, 0xfa, 0xd0, 0xff, 0xff, 0x04, 0x00, 0x00, 0x00,
  0x10, 0x00, 0x00, 0x00, 0x31, 0x2e, 0x35, 0x2e, 0x30, 0x00, 0x00, 0x00,
  0x00, 0x00, 0x00, 0x00, 0x00, 0x00, 0x00, 0x00, 0x38, 0xca, 0xff, 0xff,
  0x3c, 0xca, 0xff, 0xff, 0x40, 0xca, 0xff, 0xff, 0x44, 0xca, 0xff, 0xff,
  0x26, 0xd1, 0xff, 0xff, 0x04, 0x00, 0x00, 0x00, 0x40, 0x00, 0x00, 0x00,
  0xe6, 0x28, 0x14, 0x3f, 0x0d, 0x0a, 0xc3, 0xbe, 0xf7, 0x07, 0xa7, 0x3e,
  0xe0, 0xeb, 0xe5, 0xbe, 0x4b, 0x9c, 0x71, 0xbe, 0x24, 0xa6, 0xf2, 0x3e,
  0x21, 0x2d, 0xf0, 0x3e, 0x78, 0x1b, 0x42, 0xbe, 0x45, 0x85, 0x10, 0xbf,
  0xe0, 0xf8, 0xf4, 0x3d, 0x71, 0x59, 0xfa, 0xbe, 0x1c, 0x4f, 0x2b, 0x3e,
  0x49, 0x02, 0xba, 0xbd, 0x1f, 0x14, 0xfb, 0xbe, 0xff, 0xc1, 0x6c, 0xbe,
  0xe9, 0x1d, 0x1b, 0x3f, 0x72, 0xd1, 0xff, 0xff, 0x04, 0x00, 0x00, 0x00,
  0x00, 0x08, 0x00, 0x00, 0x3e, 0x80, 0xdf, 0x3e, 0xca, 0x07, 0x54, 0xbe,
  0x4e, 0x9b, 0xf6, 0x3e, 0x85, 0xb6, 0x68, 0x3e, 0x1d, 0xf1, 0x24, 0x3e,
  0xe3, 0xcf, 0x66, 0x3d, 0x4d, 0x69, 0xdb, 0x3e, 0x67, 0x67, 0x9b, 0xbe,
  0x9f, 0x5e, 0x91, 0xbc, 0x19, 0x73, 0x3c, 0x3d, 0x2a, 0x2b, 0x4d, 0x3e,
  0x72, 0x39, 0xac, 0xbe, 0x76, 0xff, 0x5d, 0x3e, 0xcf, 0x54, 0x3b, 0xbe,
  0xd3, 0xde, 0x66, 0x3c, 0xab, 0x85, 0xee, 0x3c, 0xe9, 0xf6, 0x99, 0xbe,
  0xc0, 0xe8, 0x50, 0xbe, 0x0f, 0x1b, 0x22, 0x3e, 0x43, 0xfa, 0xf5, 0x3e,
  0xba, 0x67, 0xe0, 0x3e, 0x52, 0xf6, 0x0a, 0xbe, 0x6d, 0xd7, 0xa8, 0xbd,
  0x8b, 0x28, 0x95, 0x3e, 0x69, 0xd3, 0x4e, 0x3e, 0x65, 0x22, 0x36, 0xbe,
  0xaf, 0x16, 0xbf, 0x3e, 0x65, 0x0c, 0xa5, 0x3e, 0xc8, 0xc9, 0x6b, 0x3e,
  0x4c, 0x8e, 0x1f, 0xbe, 0xa2, 0xc2, 0x3e, 0x3f, 0xfa, 0xa8, 0x9c, 0x3e,
  0xf2, 0x77, 0x96, 0x3e, 0x31, 0xff, 0x81, 0x3e, 0x53, 0x50, 0x7a, 0x3e,
  0xbb, 0xeb, 0x39, 0xbe, 0x94, 0x35, 0x83, 0x3e, 0x2d, 0x9c, 0x05, 0x3b,
  0x13, 0xe5, 0x56, 0xbd, 0x76, 0x8e, 0x10, 0x3e, 0xbd, 0x64, 0x8b, 0x3e,
  0x15, 0x9c, 0x2c, 0xbe, 0xd2, 0x98, 0xa2, 0x3e, 0x32, 0xd5, 0x8e, 0xbe,
  0xf9, 0xd2, 0x2b, 0xbe, 0x64, 0x87, 0x05, 0x3f, 0xa1, 0x78, 0xa6, 0xbe,
  0x04, 0x4a, 0x1b, 0x3e, 0xa4, 0xa2, 0x68, 0x3e, 0x93, 0xca, 0x5a, 0x3e,
  0x9d, 0x10, 0xa1, 0xbe, 0xd0, 0xa0, 0x73, 0x3e, 0xa6, 0x8e, 0xc2, 0x3c,
  0xe7, 0xa1, 0xff, 0xbd, 0x86, 0xe9, 0xca, 0x3d, 0x7c, 0xd9, 0x8c, 0x3e,
  0xe2, 0x1a, 0x02, 0x3f, 0x3e, 0x40, 0xc8, 0xbe, 0xd5, 0x89, 0x8f, 0x3d,
  0x19, 0xcb, 0x95, 0xbe, 0xa6, 0x1d, 0x07, 0x3d, 0x2d, 0xff, 0x18, 0xbe,
  0x34, 0x36, 0x6c, 0xbe, 0x68, 0x49, 0x68, 0xbc, 0x45, 0x25, 0x82, 0x3e,
  0xd4, 0xc3, 0x17, 0xbe, 0xe1, 0x62, 0x87, 0x3d, 0xd3, 0xa7, 0xdf, 0xbd,
  0x65, 0xae, 0x92, 0xbe, 0xcf, 0x12, 0xe1, 0x3d, 0x5f, 0x31, 0x88, 0x3e,
  0xc1, 0x36, 0x6e, 0xbe, 0x9e, 0xb3, 0x01, 0xbe, 0x72, 0x58, 0x6e, 0xbe,
  0x64, 0x3b, 0x53, 0xbe, 0xea, 0xeb, 0xd9, 0xbe, 0xfe, 0xd9, 0xe9, 0x3e,
  0x5d, 0xcb, 0xee, 0xbe, 0x88, 0xd1, 0xf4, 0xbd, 0x6f, 0x0e, 0xca, 0x3e,
  0xa5, 0x52, 0xf3, 0x3d, 0xd6, 0x62, 0x9d, 0x3e, 0xe0, 0xa7, 0x36, 0xbc,
  0x85, 0xf8, 0x03, 0x3f, 0x70, 0xba, 0xd3, 0x3d, 0xad, 0xab, 0xc7, 0x3d,
  0x07, 0x13, 0xa0, 0x3e, 0x7a, 0x35, 0x58, 0xbe, 0x12, 0x91, 0xa6, 0xbe,
  0x0c, 0x3d, 0x55, 0xbe, 0xb5, 0xb5, 0xec, 0x3e, 0xb4, 0x02, 0x0a, 0x3e,
  0x05, 0xd1, 0x95, 0x3e, 0x09, 0xbc, 0x80, 0x3e, 0x93, 0xc4, 0xb2, 0x3d,
  0x9f, 0x02, 0x09, 0x3f, 0x43, 0xe8, 0x49, 0xbe, 0x5a, 0x36, 0x9e, 0xbe,
  0xc1, 0x63, 0x40, 0x3e, 0x05, 0xad, 0x8b, 0x3d, 0x1e, 0x74, 0xa7, 0x3e,
  0xa1, 0x10, 0x9d, 0x3e, 0x4f, 0xb1, 0x00, 0xbd, 0x6d, 0x23, 0x72, 0x3e,
  0xda, 0x4d, 0xc2, 0x3d, 0x47, 0x54, 0x51, 0xbe, 0xd5, 0x76, 0x41, 0xbd,
  0x54, 0x2e, 0xe3, 0x3d, 0x79, 0xc4, 0xbe, 0x3c, 0xc6, 0xa4, 0xa4, 0xbe,
  0xd9, 0x79, 0x49, 0x3e, 0xcd, 0xd8, 0xbf, 0x3d, 0xbd, 0xc6, 0x1e, 0xbe,
  0x2b, 0xfe, 0xb2, 0x3c, 0x73, 0xaa, 0x50, 0x3e, 0xbd, 0xcc, 0x89, 0x3e,
  0xd2, 0x8f, 0x42, 0x3e, 0xa9, 0x42, 0xc5, 0xbe, 0xee, 0x87, 0x11, 0x3e,
  0xd6, 0x62, 0xf6, 0xbc, 0x88, 0x8e, 0x19, 0xbe, 0x3a, 0xf4, 0x7b, 0xbe,
  0x2b, 0x26, 0xbb, 0xbe, 0x50, 0xc6, 0xf1, 0xbc, 0x8a, 0x8d, 0x2c, 0xbe,
  0x10, 0x32, 0xf4, 0x3c, 0xc1, 0x2a, 0xcf, 0xbd, 0x2d, 0x65, 0x27, 0xbe,
  0x86, 0x93, 0x24, 0xbe, 0xed, 0x6a, 0x8a, 0x3e, 0x67, 0x8d, 0xb6, 0xbd,
  0x73, 0x85, 0xc3, 0xb9, 0xd9, 0x6e, 0x8f, 0x3e, 0x77, 0x81, 0x8d, 0x3e,
  0x0d, 0xcf, 0x18, 0xbe, 0xe9, 0x01, 0x9d, 0x3e, 0x56, 0xf4, 0xd0, 0x3d,
  0x7b, 0x4a, 0x21, 0x3e, 0x29, 0x79, 0xa7, 0xbe, 0xcc, 0xe3, 0xc9, 0xbc,
  0x1f, 0x52, 0x8a, 0x3d, 0xc0, 0x28, 0xa7, 0x3d, 0x53, 0xfc, 0x7f, 0xbe,
  0x44, 0x04, 0x31, 0x3e, 0x65, 0x8e, 0xd9, 0x3d, 0x6a, 0x2c, 0x8f, 0x3e,
  0xcf, 0x34, 0x65, 0x3d, 0x77, 0x86, 0x95, 0x3e, 0xa0, 0x0f, 0xbf, 0xbe,
  0x2e, 0x9c, 0x0e, 0xbe, 0x61, 0x63, 0x6f, 0xbc, 0x50, 0x5b, 0x9b, 0xbe,
  0xc8, 0x92, 0xe2, 0x3d, 0xf8, 0x95, 0xef, 0x3d, 0x69, 0xa1, 0xc0, 0x3c,
  0xff, 0x37, 0x39, 0xbe, 0x54, 0xa7, 0x85, 0xbe, 0x7b, 0x23, 0xad, 0x3d,
  0xf3, 0x0a, 0x28, 0xbe, 0x1f, 0x50, 0xda, 0x3d, 0x6a, 0xa1, 0xc8, 0x3e,
  0x0d, 0x95, 0x94, 0x3e, 0x62, 0x76, 0x6a, 0x3e, 0xcc, 0xa7, 0x71, 0x3e,
  0x95, 0x0f, 0x80, 0xbe, 0x8f, 0xfd, 0x75, 0xbb, 0xee, 0x1d, 0x9e, 0x3d,
  0x17, 0xfa, 0x8c, 0x3d, 0x39, 0x4c, 0xa8, 0x3e, 0x52, 0x11, 0xf8, 0xbc,
  0x21, 0xb4, 0x87, 0x3e, 0x22, 0xbc, 0xf4, 0xbd, 0x94, 0xae, 0xf6, 0x3d,
  0x90, 0xc3, 0x3d, 0xbe, 0x29, 0xb9, 0xf4, 0x3e, 0x9e, 0xeb, 0xb1, 0xbd,
  0xdc, 0xa7, 0x03, 0xbd, 0xab, 0x37, 0x35, 0x3d, 0x5a, 0xe0, 0x21, 0xbe,
  0x3c, 0xc8, 0x27, 0xbe, 0xe5, 0xda, 0xea, 0x3d, 0x60, 0xb7, 0x2c, 0xbd,
  0x4c, 0x7d, 0xa2, 0xbe, 0x69, 0x96, 0x4b, 0xbe, 0x90, 0xfb, 0x74, 0xbe,
  0xa7, 0x5c, 0x12, 0xbd, 0x79, 0x23, 0xd5, 0x3d, 0x38, 0x9f, 0x00, 0x3e,
  0xd6, 0x12, 0x81, 0x3e, 0x54, 0x83, 0x9b, 0xbe, 0x6a, 0x82, 0x4b, 0x3f,
  0xd6, 0x9a, 0xf4, 0x3e, 0x21, 0xee, 0x28, 0xbe, 0xa9, 0xab, 0xec, 0xbd,
  0x62, 0x2d, 0xfe, 0x3e, 0x5b, 0x58, 0xcf, 0x3e, 0x09, 0xd8, 0x98, 0xbd,
  0xb4, 0x30, 0x8b, 0xbd, 0x01, 0x9d, 0xa9, 0x3d, 0xcf, 0x95, 0x3b, 0xbe,
  0x6a, 0x26, 0x72, 0xbd, 0x28, 0xc5, 0x5d, 0xbe, 0x4c, 0xc0, 0x29, 0xbe,
  0x2f, 0x30, 0xcb, 0xbe, 0x0f, 0x95, 0xb6, 0xbd, 0x84, 0xe2, 0x7b, 0xbe,
  0x7b, 0xab, 0xd3, 0x3e, 0x24, 0x20, 0x63, 0x3e, 0x72, 0x61, 0x4e, 0xbe,
  0x09, 0x30, 0xd4, 0xbb, 0xca, 0xb8, 0xa8, 0x3e, 0xef, 0xf5, 0x1f, 0xbd,
  0xe9, 0xb2, 0x03, 0xbc, 0x9d, 0x47, 0xab, 0x3e, 0xde, 0x3e, 0xa1, 0xbe,
  0x01, 0x48, 0x9a, 0x3e, 0xff, 0x3d, 0x01, 0x3c, 0x4f, 0x0c, 0xce, 0x3c,
  0xe3, 0xed, 0xe7, 0x3e, 0xd1, 0x1c, 0x93, 0xbe, 0x13, 0x61, 0xd0, 0xbd,
  0xb9, 0x54, 0xb0, 0x3d, 0x9f, 0x6a, 0x41, 0x3e, 0x02, 0xad, 0x59, 0x3e,
  0x64, 0x9c, 0x7c, 0x3e, 0x10, 0x92, 0xa0, 0xbd, 0xaf, 0xbf, 0xb5, 0x3d,
  0xfc, 0x82, 0xa8, 0xbe, 0x4a, 0x7e, 0xed, 0x3d, 0x00, 0xae, 0x29, 0xbc,
  0x81, 0xeb, 0x64, 0xbe, 0x81, 0xd8, 0x87, 0x3e, 0x3a, 0x0e, 0x90, 0x3d,
  0x9c, 0xf3, 0x68, 0xbe, 0x6b, 0x8a, 0xa7, 0xbe, 0x04, 0xdc, 0x97, 0x3e,
  0x54, 0xe3, 0x8b, 0xbe, 0x73, 0x05, 0x89, 0xbe, 0x66, 0xb2, 0xf8, 0xbd,
  0x70, 0x13, 0x88, 0x3c, 0xb1, 0x16, 0x5d, 0xbe, 0x94, 0x4e, 0x4a, 0xbd,
  0xa5, 0xab, 0x37, 0x3e, 0x1a, 0x88, 0xa5, 0x3e, 0x63, 0xa1, 0x90, 0xbe,
  0xcd, 0x73, 0x36, 0xbe, 0x42, 0x16, 0xb2, 0xbe, 0x46, 0xb8, 0x60, 0xbd,
  0xc5, 0xef, 0x23, 0x3d, 0xe9, 0x1f, 0x48, 0xbd, 0x45, 0x06, 0x45, 0x3e,
  0x61, 0xdd, 0x11, 0xbe, 0x17, 0x13, 0x31, 0xbc, 0x80, 0x6a, 0xdb, 0x3b,
  0x42, 0xf2, 0xc9, 0x3d, 0x5d, 0x04, 0xd9, 0xbd, 0xe6, 0x2a, 0xa1, 0x3e,
  0x76, 0x5a, 0xf9, 0xbc, 0x4c, 0x15, 0x1d, 0xbc, 0x83, 0x0d, 0x2b, 0xbe,
  0x34, 0x1a, 0x1a, 0x3d, 0xde, 0x12, 0x5d, 0x3c, 0x94, 0x8e, 0xa6, 0xbe,
  0x9b, 0xa9, 0x92, 0x3e, 0x59, 0xf2, 0x21, 0xbe, 0x36, 0x03, 0x84, 0xbe,
  0x3e, 0xf3, 0xed, 0xbd, 0x2a, 0x16, 0x53, 0xbe, 0x96, 0xa7, 0x1c, 0x3d,
  0xf0, 0xb8, 0xa4, 0xbe, 0xd7, 0x40, 0x78, 0xbd, 0x71, 0xaf, 0x52, 0x3d,
  0x0c, 0x00, 0x7b, 0x3e, 0x1d, 0x5f, 0x9e, 0x3b, 0x38, 0xda, 0x83, 0xbe,
  0x67, 0xa1, 0x56, 0xbe, 0x76, 0x60, 0x8d, 0xbe, 0x6b, 0x4a, 0x91, 0xbe,
  0xd3, 0xf5, 0x0a, 0xbe, 0x17, 0x13, 0x4f, 0x3e, 0xa9, 0x2e, 0x6b, 0x3e,
  0x9f, 0x27, 0x81, 0x3e, 0x85, 0xaa, 0x73, 0x3e, 0xf6, 0x6b, 0x76, 0x3e,
  0x7d, 0xd0, 0x0d, 0x3b, 0xd3, 0x7b, 0x6b, 0x3e, 0x7f, 0xb2, 0x9b, 0x3e,
  0x94, 0x85, 0x37, 0x3e, 0x06, 0x88, 0x3b, 0x3e, 0x72, 0xf1, 0x0f, 0xbe,
  0x8f, 0xbd, 0x3e, 0x3e, 0xd5, 0xf9, 0x69, 0xbe, 0x39, 0x4f, 0x11, 0x3e,
  0x42, 0xed, 0x4a, 0xbe, 0x30, 0x79, 0xcb, 0x3e, 0x7f, 0xce, 0x83, 0x3e,
  0x5c, 0xf5, 0xb1, 0xbe, 0x8e, 0x70, 0x8d, 0x3e, 0x5b, 0x97, 0x42, 0xbe,
  0x6c, 0x59, 0xd0, 0xbe, 0x32, 0x55, 0xd2, 0x3e, 0x6a, 0x15, 0x1d, 0xbf,
  0xad, 0xa5, 0x82, 0x3e, 0x70, 0xa4, 0x69, 0xbe, 0xa6, 0x78, 0x52, 0x3e,
  0x07, 0xd7, 0x1a, 0x3e, 0x78, 0xbf, 0x10, 0xbd, 0x27, 0xf9, 0x0a, 0xbe,
  0xd0, 0xb8, 0xbe, 0xbd, 0x59, 0x6b, 0x16, 0x3e, 0x66, 0xcc, 0x0d, 0xbc,
  0xd2, 0xd8, 0x5d, 0x3e, 0x35, 0xc2, 0xa9, 0xbe, 0x02, 0xff, 0xfb, 0xbd,
  0xdc, 0x9e, 0x6d, 0x3e, 0x02, 0xec, 0x87, 0xbe, 0xfd, 0x72, 0xa3, 0x3c,
  0x13, 0x74, 0xa8, 0x3e, 0x7f, 0xc4, 0xf9, 0x3e, 0xd7, 0x82, 0x1b, 0x3e,
  0x94, 0xe8, 0xb1, 0xbe, 0xc6, 0x29, 0x0d, 0x3c, 0xfa, 0x3d, 0x96, 0x3e,
  0x2c, 0x0b, 0x45, 0xbe, 0x96, 0x71, 0x73, 0xbd, 0x73, 0x0d, 0x67, 0xbd,
  0x44, 0x3a, 0x12, 0xbd, 0x8d, 0x4e, 0xa3, 0x3d, 0x06, 0x11, 0x8b, 0x3d,
  0xd1, 0xf3, 0x42, 0xbe, 0x45, 0x64, 0xa6, 0xbe, 0xc7, 0x08, 0x6f, 0x3e,
  0xe2, 0xfd, 0x06, 0xbd, 0xbc, 0x9b, 0x27, 0x3e, 0x1e, 0x55, 0xcb, 0xbd,
  0xb1, 0x29, 0x95, 0xbe, 0x2b, 0x8e, 0x84, 0xbe, 0xed, 0xad, 0xa4, 0x3e,
  0x56, 0xd2, 0x52, 0xbe, 0xf4, 0x2a, 0x3a, 0x3d, 0xc2, 0xa4, 0x5f, 0x3e,
  0x47, 0x8d, 0x65, 0xbe, 0xc3, 0x02, 0xb7, 0xbd, 0xdf, 0xab, 0x30, 0xbe,
  0x52, 0x51, 0xf3, 0x3d, 0x37, 0x83, 0x90, 0x3e, 0x61, 0x42, 0x54, 0xbc,
  0x48, 0xb6, 0x34, 0xbd, 0x9a, 0xf1, 0xd5, 0xbd, 0x73, 0x9e, 0xe5, 0xbd,
  0xcd, 0xd8, 0xd9, 0xbd, 0xd4, 0x55, 0x2c, 0xbe, 0x72, 0x13, 0xec, 0x3e,
  0x32, 0x3d, 0x10, 0x3e, 0x2a, 0xd6, 0xcd, 0xbd, 0x31, 0x1c, 0x87, 0x3a,
  0xce, 0x79, 0x7c, 0xbe, 0xd0, 0xbc, 0xe1, 0x3e, 0x7a, 0xba, 0xbd, 0x3e,
  0x21, 0xbd, 0x70, 0x3e, 0x3e, 0x12, 0x95, 0x3e, 0xfb, 0xda, 0x13, 0xbd,
  0x1b, 0xa9, 0xa5, 0x3e, 0x45, 0x6e, 0xfa, 0x3d, 0xa0, 0x5d, 0xf2, 0xbd,
  0x19, 0x4d, 0x79, 0xbe, 0x72, 0x36, 0xda, 0x3b, 0x7f, 0xcc, 0x2e, 0x3e,
  0xd5, 0x73, 0xa0, 0x3e, 0xfb, 0x98, 0x2b, 0xbe, 0xf6, 0x8f, 0x84, 0x3d,
  0xc5, 0xb2, 0xbc, 0x3e, 0x00, 0x3c, 0x36, 0x3e, 0xbf, 0x0e, 0x06, 0x3e,
  0x13, 0xff, 0xcc, 0xbd, 0x44, 0x53, 0x8d, 0x3e, 0xc3, 0x90, 0xff, 0xbe,
  0x16, 0xae, 0xb4, 0x3d, 0x9c, 0x30, 0xa6, 0x3e, 0xfa, 0x7c, 0x61, 0x3e,
  0x52, 0x64, 0x36, 0xbe, 0x0f, 0x66, 0x4f, 0xbe, 0x7b, 0xff, 0x18, 0x3f,
  0xdb, 0x7c, 0x0c, 0x3f, 0xec, 0xa0, 0x6b, 0xbe, 0x32, 0x02, 0x86, 0xbe,
  0x3e, 0xd3, 0xac, 0x3d, 0x47, 0x90, 0x99, 0x3c, 0x6a, 0x5c, 0x0c, 0xbe,
  0x56, 0xf1, 0x5c, 0xbd, 0x73, 0x39, 0xbb, 0xbb, 0xa8, 0x9f, 0x74, 0xbe,
  0x6b, 0xcf, 0x8e, 0xbe, 0x4a, 0xc9, 0xd9, 0x3d, 0xaa, 0xb7, 0x0e, 0xbe,
  0xd7, 0xea, 0xde, 0x3d, 0x03, 0xf7, 0x19, 0x3d, 0xed, 0xf2, 0x0e, 0x3c,
  0x89, 0xab, 0x04, 0xbe, 0x23, 0xdc, 0x37, 0xbe, 0x7e, 0xc2, 0x5e, 0xbe,
  0x7f, 0xee, 0x64, 0x3e, 0x01, 0xe5, 0xaf, 0xbe, 0x77, 0x47, 0x8c, 0xbe,
  0x73, 0xa6, 0xcf, 0x3d, 0xaa, 0x61, 0x11, 0x3e, 0x36, 0x40, 0xae, 0xbe,
  0xf5, 0x13, 0x4d, 0x3b, 0x76, 0x90, 0x97, 0xbd, 0xe2, 0xcf, 0x90, 0x3d,
  0xab, 0xa9, 0x8a, 0x3e, 0x80, 0xcb, 0xd9, 0x3d, 0xb2, 0x1c, 0xda, 0xbd,
  0xc6, 0xd3, 0xd0, 0xbd, 0xeb, 0x45, 0x8c, 0x3d, 0x91, 0x78, 0xa4, 0xbe,
  0x2e, 0x98, 0x45, 0x3d, 0x18, 0x16, 0x57, 0xbe, 0x4b, 0x65, 0x90, 0xbc,
  0xaf, 0x91, 0xc7, 0xbe, 0x6f, 0xa2, 0x96, 0x3e, 0x7c, 0xc8, 0x5d, 0x3e,
  0x46, 0x11, 0x19, 0xbe, 0x2f, 0x2d, 0x96, 0x3e, 0x1f, 0xe2, 0x9e, 0xbe,
  0xe9, 0x82, 0x09, 0xbe, 0xc1, 0xd3, 0x26, 0xbe, 0xe5, 0x91, 0x1b, 0x3d,
  0x2a, 0xb0, 0x1a, 0xbd, 0x34, 0x47, 0x63, 0x3e, 0x74, 0x12, 0xea, 0x3d,
  0x69, 0x6c, 0x30, 0x3e, 0xa9, 0xaf, 0xa8, 0x3c, 0x34, 0xf2, 0x86, 0x3e,
  0x38, 0x64, 0x54, 0xbc, 0xf2, 0x38, 0x81, 0x3e, 0x8a, 0xab, 0x92, 0x3e,
  0x9d, 0xa6, 0x93, 0xbd, 0x89, 0xdd, 0x0d, 0xbe, 0xd3, 0x0c, 0x79, 0x3e,
  0xe3, 0x19, 0x6d, 0xbd, 0x07, 0x27, 0x5b, 0xbe, 0xa4, 0x3c, 0xa8, 0xbe,
  0xa3, 0x88, 0x3b, 0xbe, 0x24, 0x39, 0x28, 0x3e, 0x9c, 0xb4, 0x33, 0xbe,
  0x2f, 0x48, 0xf5, 0x3d, 0xbf, 0xe5, 0x69, 0xbd, 0x9c, 0xf6, 0x99, 0xbd,
  0x8c, 0xdc, 0x52, 0x3e, 0x94, 0x5f, 0x94, 0x3e, 0x80, 0x62, 0x29, 0x3e,
  0x6e, 0x70, 0xfd, 0xbd, 0xf2, 0x9d, 0xa6, 0xbd, 0x1e, 0x31, 0xff, 0x3d,
  0xf6, 0xa6, 0xb7, 0xbe, 0xbc, 0x9d, 0xb8, 0xbe, 0xd7, 0x4d, 0x12, 0x3e,
  0x9c, 0x61, 0x2f, 0x3e, 0x35, 0x99, 0x65, 0xbe, 0x75, 0xb0, 0x86, 0x3d,
  0xda, 0x2a, 0x50, 0xbe, 0x06, 0x71, 0xc2, 0xbe, 0xbb, 0x71, 0x81, 0xbd,
  0x5f, 0xa4, 0x74, 0xbe, 0xa0, 0xb2, 0x93, 0x3e, 0xa8, 0xb7, 0x96, 0x3d,
  0x2c, 0xf2, 0x80, 0xbd, 0xb0, 0xfe, 0x62, 0xbe, 0x7e, 0xa9, 0x52, 0x3e,
  0xee, 0x92, 0x8d, 0x3d, 0x89, 0xed, 0x94, 0x3d, 0x25, 0x17, 0x86, 0xbc,
  0x1f, 0xfb, 0x2e, 0xbd, 0xa4, 0x03, 0xc0, 0xbe, 0xcd, 0xd0, 0x96, 0x3e,
  0xff, 0x11, 0x52, 0xbe, 0xb1, 0x45, 0xfd, 0xbd, 0xb7, 0xd9, 0x3b, 0x3e,
  0xa1, 0xab, 0x68, 0x3e, 0xca, 0x90, 0xbc, 0x3e, 0x26, 0x06, 0xad, 0xbd,
  0xd3, 0x2d, 0xbd, 0x3e, 0x71, 0xd4, 0xea, 0xbd, 0xbf, 0x5d, 0x1d, 0xbe,
  0xd0, 0xa1, 0x84, 0x3b, 0xf2, 0xb6, 0xed, 0x3e, 0x19, 0xe8, 0x23, 0x3d,
  0x44, 0xef, 0x1f, 0xbe, 0xae, 0x86, 0x36, 0x3e, 0x80, 0xc6, 0x9c, 0xbd,
  0x00, 0x74, 0x70, 0xbd, 0x75, 0xd2, 0xeb, 0x3e, 0x71, 0xde, 0xab, 0xbe,
  0x17, 0xc3, 0xce, 0x3e, 0x01, 0xa4, 0x26, 0x3e, 0x7a, 0x4f, 0x94, 0xbe,
  0x48, 0xbe, 0x92, 0xbe, 0x98, 0x81, 0xee, 0x3e, 0x93, 0xf4, 0x91, 0x3e,
  0x16, 0xfa, 0xbf, 0x3e, 0xc3, 0xc0, 0xdc, 0x3e, 0x92, 0xd2, 0xde, 0xbc,
  0x07, 0xa1, 0xe1, 0x3e, 0x97, 0x97, 0xe8, 0xbe, 0x0d, 0xe8, 0x6c, 0x3e,
  0x6e, 0x2e, 0xa1, 0x3d, 0xd6, 0xaa, 0x02, 0x3e, 0xec, 0x8d, 0x8e, 0x3e,
  0x19, 0x81, 0xf8, 0xbd, 0x62, 0xfd, 0x1d, 0x3e, 0x31, 0xa7, 0x8b, 0xbd,
  0x7e, 0xd9, 0xff, 0xff, 0x04, 0x00, 0x00, 0x00, 0x00, 0x20, 0x00, 0x00,
  0xbb, 0xa7, 0xf9, 0x3c, 0x84, 0x99, 0x69, 0x3e, 0x00, 0x78, 0x8e, 0x3e,
  0xee, 0xb1, 0xd8, 0x3d, 0x6a, 0x44, 0x5a, 0x3e, 0x5d, 0x6a, 0x8c, 0xbd,
  0x15, 0xf7, 0x5b, 0x3e, 0x8e, 0xc8, 0x9d, 0x3e, 0x0a, 0xda, 0xf5, 0x3d,
  0x51, 0x51, 0xa1, 0xbd, 0x93, 0x13, 0xcd, 0xbc, 0x87, 0x5a, 0xdc, 0xbc,
  0x13, 0x6e, 0x0e, 0x3d, 0xd0, 0x49, 0x3b, 0xbe, 0x18, 0xea, 0xe4, 0xbb,
  0x26, 0xa2, 0x6e, 0x3e, 0xb7, 0x3c, 0xa8, 0x3e, 0x27, 0xa4, 0x6a, 0x3d,
  0x6b, 0xa8, 0x50, 0x3e, 0xdc, 0x76, 0x67, 0xbd, 0x88, 0x07, 0xc0, 0x3d,
  0x3c, 0x2c, 0xc0, 0x3d, 0x39, 0xec, 0x85, 0x3e, 0x1d, 0xd6, 0x80, 0x3e,
  0xf0, 0xbb, 0x65, 0x3e, 0x51, 0xb3, 0xaa, 0xbd, 0xeb, 0x31, 0xa5, 0x3d,
  0x61, 0x28, 0x99, 0x3e, 0xd7, 0x9b, 0x80, 0x3e, 0x03, 0x92, 0xe3, 0xbb,
  0x46, 0xd9, 0x4e, 0x3c, 0x42, 0xb8, 0x9b, 0x3e, 0x39, 0x7c, 0x18, 0x3e,
  0xda, 0x22, 0x9c, 0xbd, 0xe1, 0x55, 0xac, 0xbd, 0x09, 0x69, 0x0e, 0x3e,
  0x2a, 0x85, 0x7c, 0x3e, 0xa8, 0xe0, 0x70, 0xbd, 0xd4, 0x2c, 0x34, 0xbc,
  0xf6, 0x56, 0x89, 0x3e, 0x7c, 0x8f, 0x1a, 0xba, 0x26, 0xdb, 0xbd, 0x3e,
  0xd2, 0x29, 0x41, 0x3e, 0x83, 0x09, 0xba, 0x3d, 0xf6, 0x07, 0x21, 0x3e,
  0xcf, 0x1c, 0xc8, 0x3e, 0xc0, 0x46, 0x23, 0x3e, 0x55, 0xae, 0xa9, 0x3c,
  0x34, 0xd3, 0x7e, 0xbe, 0xe8, 0xb2, 0x20, 0xbd, 0x51, 0xc9, 0x00, 0x3e,
  0x03, 0x45, 0x1b, 0xbd, 0x1f, 0x98, 0x50, 0x3d, 0x52, 0xd7, 0x4a, 0x3e,
  0x03, 0xf7, 0xb6, 0xbd, 0x6d, 0x65, 0xda, 0xbd, 0x65, 0xb3, 0x42, 0x3d,
  0xb1, 0x4b, 0x65, 0x3e, 0x01, 0xdc, 0x11, 0xbe, 0xd5, 0xe7, 0x8b, 0x3d,
  0xd9, 0x93, 0x2b, 0x3e, 0x95, 0xd7, 0xf7, 0x3d, 0x91, 0x57, 0x9a, 0x3e,
  0xb5, 0x0e, 0x1e, 0xbd, 0xd8, 0xb1, 0xa9, 0x3d, 0x30, 0x36, 0x13, 0xbd,
  0x08, 0x7b, 0x82, 0xbe, 0x90, 0x27, 0x80, 0x3d, 0xb3, 0x70, 0x61, 0x3c,
  0xb1, 0x42, 0x59, 0x3e, 0xc8, 0x53, 0x2c, 0xbe, 0xac, 0xd7, 0xf9, 0x3b,
  0xce, 0x77, 0xe6, 0x3c, 0xc0, 0x57, 0x94, 0xbd, 0x40, 0x3b, 0xd0, 0x3d,
  0x14, 0x59, 0x2c, 0x3e, 0x09, 0xd6, 0x3a, 0x3c, 0x80, 0x95, 0x38, 0x3d,
  0x11, 0x46, 0x6f, 0xbe, 0x2a, 0xa5, 0xa6, 0x3d, 0x38, 0xc0, 0x9f, 0x3d,
  0x97, 0xa9, 0xa5, 0xbd, 0x9b, 0x3e, 0x7b, 0x3d, 0x80, 0x09, 0x24, 0xbe,
  0x10, 0xeb, 0x64, 0xbe, 0x9f, 0x41, 0xa4, 0xbd, 0x1a, 0x3f, 0x37, 0xbc,
  0x12, 0x15, 0x87, 0xbd, 0xba, 0x3e, 0x56, 0x3e, 0x48, 0x5a, 0x3f, 0x3e,
  0xd8, 0xfc, 0x18, 0xbe, 0x63, 0x64, 0x98, 0xbd, 0x38, 0x98, 0x1c, 0xbe,
  0x13, 0xc5, 0x26, 0xbe, 0xab, 0x2a, 0xe1, 0xbd, 0x6c, 0x86, 0x25, 0x3e,
  0xd4, 0xf5, 0x10, 0x3e, 0xa8, 0x33, 0x5e, 0xbe, 0xb6, 0x4f, 0x80, 0xbb,
  0xd3, 0x1b, 0x06, 0x3e, 0x60, 0x92, 0x36, 0xbe, 0xd7, 0xf5, 0x2f, 0x3c,
  0x82, 0xc0, 0xff, 0x3d, 0x79, 0x47, 0x0d, 0xbe, 0x0b, 0x5a, 0x83, 0xbd,
  0xc7, 0x4b, 0xcd, 0xbd, 0xd5, 0xa3, 0xf5, 0xbc, 0xfb, 0xac, 0x41, 0xbe,
  0x06, 0x0b, 0xe2, 0xbd, 0xf2, 0x9c, 0x21, 0xbe, 0x7f, 0x70, 0x48, 0xbe,
  0xbb, 0x1a, 0x30, 0x3e, 0x2d, 0xf1, 0x59, 0x3d, 0x68, 0xa9, 0x43, 0xbe,
  0xd4, 0xe3, 0x66, 0x3e, 0x53, 0x0c, 0x9b, 0xbd, 0x08, 0x82, 0x7d, 0xbe,
  0xb8, 0x98, 0x60, 0xbe, 0xc3, 0x6d, 0xe0, 0xbc, 0xa3, 0x63, 0x3c, 0x3e,
  0xc8, 0xb1, 0x38, 0xbe, 0x57, 0x09, 0x0c, 0xbe, 0xf1, 0x30, 0x5e, 0xbb,
  0x1e, 0x03, 0x86, 0xbe, 0x1f, 0x8c, 0xd8, 0x3d, 0x28, 0x3a, 0xce, 0xbd,
  0x15, 0x17, 0x02, 0xbd, 0xea, 0x61, 0xff, 0xbd, 0xf6, 0xea, 0x93, 0xbd,
  0x7b, 0xd3, 0x73, 0xbd, 0xeb, 0xae, 0xb9, 0x3c, 0xb9, 0x29, 0xbf, 0x3b,
  0x67, 0x6d, 0x3d, 0x3e, 0x60, 0x17, 0x1a, 0x3d, 0xb0, 0x40, 0xe7, 0x3c,
  0x74, 0xf9, 0xb8, 0xbd, 0x99, 0x3b, 0xab, 0x3d, 0x44, 0xd2, 0xd5, 0xbd,
  0x6c, 0x36, 0x52, 0x3e, 0x30, 0x8a, 0x5f, 0xbe, 0x25, 0x86, 0x66, 0xbd,
  0xab, 0xe9, 0xbe, 0xbe, 0xdb, 0x55, 0x8e, 0x3e, 0x7f, 0x0b, 0x85, 0x3c,
  0x59, 0xbf, 0xbf, 0xbc, 0x28, 0x67, 0x97, 0x3e, 0x1a, 0xd5, 0x85, 0xbd,
  0xf2, 0xcc, 0x73, 0x3e, 0x27, 0x86, 0x42, 0x3e, 0x9e, 0xaf, 0xb6, 0x3e,
  0xe1, 0x9e, 0x24, 0xbe, 0xa2, 0xc9, 0x57, 0xbd, 0xf8, 0xf1, 0x87, 0x3e,
  0x2c, 0xe7, 0x07, 0xbe, 0x31, 0x5f, 0x02, 0x3d, 0x63, 0xcb, 0x63, 0x3e,
  0x8a, 0x8b, 0x54, 0x3e, 0xbd, 0x89, 0x9a, 0x3e, 0xcf, 0x71, 0xc6, 0xbc,
  0xf1, 0xb5, 0x83, 0x3e, 0xd5, 0xf5, 0x64, 0x3e, 0x02, 0x22, 0x51, 0x3e,
  0x5b, 0xbe, 0x02, 0xbc, 0xf6, 0x7d, 0x77, 0xbe, 0x81, 0xce, 0xc5, 0xbd,
  0x82, 0x69, 0x95, 0x3e, 0x81, 0x0e, 0xf2, 0x3c, 0xc6, 0x52, 0x41, 0x3e,
  0xce, 0xb6, 0x53, 0x3e, 0x81, 0xe7, 0xcb, 0x3e, 0x58, 0x16, 0xd6, 0x3d,
  0x6f, 0xcd, 0xb1, 0x3d, 0x33, 0xbc, 0x29, 0x3e, 0xd0, 0x5b, 0xb2, 0x3e,
  0xc4, 0x5f, 0xc2, 0x3e, 0x15, 0xc0, 0x17, 0x3e, 0xa7, 0x16, 0x5f, 0x3d,
  0xee, 0xa7, 0x53, 0x3d, 0xef, 0xbd, 0x19, 0xbe, 0x40, 0x24, 0x75, 0x3d,
  0x80, 0x63, 0x2f, 0x3e, 0x1f, 0x04, 0xcd, 0x3e, 0xd4, 0xfe, 0x5f, 0x3e,
  0xa0, 0xd3, 0x4e, 0x3e, 0x03, 0x57, 0x82, 0x3e, 0xd5, 0x14, 0x94, 0xbd,
  0x8b, 0xf9, 0x20, 0xbd, 0x99, 0xfb, 0x09, 0x3b, 0x3a, 0x5e, 0xad, 0x3c,
  0xa5, 0x82, 0x04, 0xbe, 0xca, 0x62, 0x3a, 0x3e, 0x23, 0xd7, 0xf2, 0xbd,
  0xb9, 0x82, 0x0c, 0xbe, 0x3b, 0xc1, 0xeb, 0xbd, 0xb5, 0x1e, 0x61, 0x3e,
  0x6f, 0x8f, 0xa3, 0x3e, 0x9c, 0xc4, 0x0f, 0xbe, 0xc1, 0xc3, 0x38, 0x3e,
  0xdb, 0x30, 0x0e, 0xbd, 0x0b, 0x51, 0xbf, 0x3b, 0x08, 0x7c, 0x63, 0x3e,
  0x1c, 0x5e, 0x25, 0xbd, 0x75, 0x93, 0xd8, 0xbd, 0x74, 0xb3, 0xd2, 0xbe,
  0x5f, 0x85, 0x65, 0x3e, 0x8d, 0xc1, 0x0f, 0xbe, 0xdf, 0x60, 0x89, 0x3c,
  0x43, 0xd7, 0x43, 0x3e, 0x61, 0xf8, 0x5b, 0x3e, 0xff, 0xda, 0x32, 0x3e,
  0xff, 0x8e, 0x31, 0x3e, 0x4a, 0x66, 0x72, 0x3d, 0xe2, 0x71, 0x85, 0xbb,
  0x99, 0xc6, 0xf6, 0xbd, 0x2a, 0xa0, 0x82, 0x3e, 0xd5, 0xf4, 0x87, 0x3e,
  0x11, 0x2b, 0x25, 0x3e, 0x1f, 0x3d, 0x22, 0xbe, 0xe3, 0x14, 0x85, 0x3e,
  0xcf, 0x7b, 0xc4, 0x3e, 0xf6, 0x09, 0x1c, 0xbe, 0xac, 0x92, 0x00, 0xbe,
  0x1e, 0xaf, 0x3e, 0x3e, 0x58, 0x26, 0xb1, 0x3e, 0x66, 0x75, 0x91, 0xbc,
  0xc9, 0xc8, 0xdd, 0xbd, 0x22, 0x92, 0x4b, 0x3e, 0xd6, 0x94, 0xb7, 0xbd,
  0x79, 0x79, 0x8f, 0x3e, 0x44, 0xc8, 0x31, 0x3e, 0x81, 0xf3, 0xe3, 0x3d,
  0x3f, 0xdc, 0xf6, 0x3c, 0xb0, 0xae, 0xac, 0x3b, 0x1a, 0x6c, 0xa9, 0xbc,
  0x5a, 0xc0, 0x3d, 0xbe, 0x6e, 0x0a, 0x0f, 0x3e, 0xe2, 0x6c, 0xa8, 0xbd,
  0x8d, 0x52, 0xc8, 0x3e, 0x95, 0x69, 0xa0, 0xbc, 0x82, 0x41, 0x9c, 0xbd,
  0xd2, 0x85, 0x80, 0xbe, 0x2c, 0xe4, 0x81, 0x3d, 0x5d, 0xeb, 0x24, 0xbd,
  0xe6, 0x74, 0x4f, 0x3e, 0x6f, 0x39, 0x5e, 0x3e, 0xd6, 0x98, 0x59, 0x3e,
  0xca, 0x2b, 0x89, 0x3d, 0xad, 0xd2, 0x02, 0x3e, 0xc3, 0xf7, 0x67, 0x3d,
  0xfa, 0x8f, 0x50, 0x3e, 0xba, 0xed, 0xcb, 0xbd, 0xe2, 0xf6, 0x73, 0x3e,
  0xfc, 0x8c, 0x51, 0xbd, 0x28, 0xb3, 0x42, 0x3e, 0x1e, 0x06, 0x93, 0x3d,
  0xa7, 0x56, 0x08, 0x3e, 0x7a, 0x98, 0x02, 0xbe, 0xc8, 0x65, 0xad, 0xbd,
  0xdb, 0x4b, 0x1c, 0xbe, 0xce, 0xe0, 0x5c, 0x3e, 0x23, 0x31, 0x47, 0xbe,
  0x8f, 0x14, 0xae, 0x3d, 0x88, 0x32, 0xa8, 0x3d, 0xab, 0x39, 0x97, 0x3b,
  0x77, 0x32, 0x83, 0xbe, 0x28, 0xc8, 0x64, 0xbe, 0x80, 0x0a, 0x2e, 0xbd,
  0x60, 0x62, 0x9a, 0x3d, 0x73, 0xc3, 0x48, 0x3e, 0x98, 0x29, 0x0c, 0xbe,
  0xb2, 0x10, 0x6c, 0x3e, 0x41, 0xbb, 0x71, 0xbe, 0x33, 0xbe, 0xc2, 0x3d,
  0x30, 0xd8, 0x1c, 0x3e, 0x71, 0x73, 0xe4, 0x3d, 0x5f, 0x33, 0x33, 0xbe,
  0x4e, 0x24, 0x90, 0xbd, 0x64, 0x3f, 0xad, 0xbd, 0x9e, 0xd4, 0x8a, 0xbe,
  0x98, 0xd3, 0x0b, 0xbd, 0x63, 0x4c, 0x1e, 0xbe, 0x97, 0x07, 0xba, 0x3c,
  0x90, 0x66, 0x74, 0xbe, 0xf5, 0x74, 0x70, 0x3c, 0x10, 0x11, 0x7f, 0xbe,
  0xb0, 0x34, 0x60, 0xbe, 0xaa, 0xb9, 0xb2, 0x3d, 0x5f, 0xb5, 0x95, 0xbd,
  0x30, 0xa8, 0x0d, 0xbe, 0x74, 0x33, 0x56, 0x3e, 0xe1, 0x09, 0x81, 0x3d,
  0xa9, 0xfb, 0x6c, 0xbe, 0x00, 0xfc, 0x70, 0xbb, 0xb4, 0x63, 0xdb, 0x3d,
  0x3b, 0xd8, 0xf6, 0xbd, 0xbd, 0x9f, 0x10, 0x3e, 0x5f, 0x82, 0x71, 0xbe,
  0xd4, 0xc0, 0xf3, 0xbd, 0x77, 0x06, 0xbc, 0xbd, 0x4d, 0x3d, 0x6d, 0xbe,
  0x31, 0xa8, 0xce, 0x3d, 0x30, 0x69, 0x7d, 0x3e, 0x7c, 0xa8, 0xfb, 0x3d,
  0xc5, 0x67, 0x17, 0xbd, 0x2d, 0x99, 0x3d, 0xbe, 0x41, 0xf2, 0x1a, 0x3e,
  0xd4, 0x11, 0x52, 0x3e, 0xd6, 0x81, 0x05, 0x3e, 0x92, 0x4c, 0x73, 0xbe,
  0x51, 0xe9, 0x15, 0xbe, 0x1a, 0xc3, 0xaf, 0xbd, 0x7f, 0x77, 0x28, 0x3e,
  0x07, 0x2a, 0xc6, 0xbd, 0x98, 0xbf, 0x06, 0x3d, 0xaf, 0x16, 0x2a, 0xbe,
  0x94, 0x51, 0x81, 0xbe, 0xf8, 0x09, 0x44, 0x3e, 0xd6, 0x3f, 0x5b, 0xbe,
  0xae, 0xf7, 0x8b, 0x3d, 0xad, 0x77, 0xf7, 0x3d, 0x87, 0xbb, 0x14, 0xbe,
  0x6b, 0xe3, 0x1c, 0x3e, 0x23, 0x31, 0x77, 0xbe, 0xba, 0xe0, 0x99, 0x3d,
  0x94, 0x85, 0x0a, 0xbe, 0x79, 0xe1, 0x9a, 0x3d, 0x94, 0x05, 0x29, 0xbe,
  0x0e, 0x8d, 0xcb, 0xbc, 0x12, 0x28, 0x53, 0x3e, 0xb2, 0x6c, 0x76, 0x3d,
  0x69, 0x9f, 0xc5, 0x3d, 0x03, 0x35, 0x28, 0xbe, 0xa5, 0x38, 0x05, 0x3c,
  0x50, 0x2d, 0xea, 0x3d, 0xe7, 0xfc, 0xc8, 0xbd, 0x47, 0x45, 0x27, 0x3e,
  0x05, 0x25, 0x89, 0xbe, 0x31, 0xc8, 0x27, 0x3e, 0x0e, 0x67, 0x08, 0x3e,
  0xce, 0x7f, 0x01, 0x3b, 0xc0, 0x01, 0xc2, 0xbc, 0x12, 0x4e, 0x44, 0x3e,
  0x53, 0x78, 0x57, 0x3e, 0xa4, 0x16, 0x83, 0xbd, 0x77, 0x35, 0xc9, 0x3d,
  0xc1, 0x7f, 0x27, 0xbe, 0x8f, 0x32, 0x35, 0xbe, 0x30, 0x16, 0x4c, 0x3d,
  0x38, 0x37, 0x2a, 0xbd, 0x03, 0xbb, 0x16, 0x3e, 0xae, 0x3b, 0x15, 0xbe,
  0x5d, 0x18, 0x2c, 0xbe, 0x50, 0x38, 0x80, 0xbe, 0x7a, 0xc6, 0xd1, 0x3d,
  0x89, 0xa9, 0x3b, 0xbd, 0xea, 0x76, 0x97, 0x3c, 0x4e, 0x10, 0x39, 0x3e,
  0x3a, 0xbe, 0x54, 0x3e, 0x8a, 0xd0, 0x2a, 0xbe, 0xef, 0x3c, 0x1e, 0x3e,
  0x5d, 0xa8, 0x60, 0xbd, 0x51, 0x5c, 0xb1, 0xbc, 0xa5, 0xcc, 0x5a, 0x3e,
  0xaf, 0x59, 0x1d, 0xbe, 0x8c, 0x27, 0x1b, 0x3e, 0x45, 0x9a, 0x4f, 0x3e,
  0x8a, 0x48, 0x4c, 0x3e, 0xa0, 0x35, 0x0a, 0x3e, 0x73, 0x3c, 0x27, 0xbe,
  0x18, 0x16, 0x6d, 0xbe, 0x84, 0x5e, 0x5f, 0xbd, 0xca, 0x88, 0x7d, 0xbd,
  0x14, 0x06, 0xf9, 0xbd, 0x74, 0x4b, 0x58, 0xbe, 0x84, 0x40, 0x30, 0xbe,
  0x2b, 0xa3, 0x5a, 0xbc, 0x66, 0xda, 0x80, 0xbe, 0xf3, 0x32, 0x0e, 0xbe,
  0x35, 0x62, 0x2b, 0xbc, 0x42, 0xab, 0xa7, 0x3d, 0x0f, 0x97, 0x8a, 0xbd,
  0x38, 0x63, 0xfd, 0x39, 0x88, 0xfe, 0xd7, 0xbd, 0x05, 0xb7, 0xc1, 0x3d,
  0x45, 0x4c, 0xf4, 0x3d, 0xa8, 0xb2, 0x8a, 0xbd, 0x83, 0x28, 0xde, 0xbd,
  0x94, 0x0b, 0x01, 0x3e, 0x3d, 0x6a, 0xa8, 0x3e, 0x27, 0x3e, 0x12, 0x3e,
  0x81, 0xbf, 0x22, 0x3e, 0x3e, 0x16, 0x44, 0x3e, 0x64, 0x74, 0xfc, 0xbd,
  0x36, 0xf9, 0xa2, 0x3d, 0xc2, 0xd2, 0x15, 0x3e, 0xa2, 0x69, 0x8b, 0xbe,
  0x18, 0x62, 0xaa, 0x3e, 0xf1, 0xd6, 0x2a, 0x3e, 0x14, 0x6f, 0x47, 0x3d,
  0xfc, 0x01, 0x8f, 0x3c, 0x15, 0x5c, 0xb1, 0x3e, 0x48, 0xf5, 0x76, 0x3d,
  0x19, 0xda, 0x77, 0x3d, 0x5f, 0xe1, 0xe2, 0xbb, 0x22, 0x03, 0xab, 0x3e,
  0x0c, 0xdb, 0xad, 0x3d, 0x2c, 0x2c, 0x29, 0x3e, 0xe1, 0xca, 0x50, 0x3e,
  0xa7, 0xed, 0xbf, 0x38, 0x14, 0x00, 0x70, 0xbd, 0x78, 0x9f, 0x4f, 0xbd,
  0xbf, 0x45, 0xb7, 0x3e, 0x3e, 0xa4, 0xa3, 0xbd, 0x9d, 0xc2, 0x66, 0x3e,
  0x31, 0xa0, 0x3d, 0xbd, 0x98, 0xbf, 0x22, 0xbc, 0x77, 0xa3, 0xb9, 0x3e,
  0x84, 0x31, 0xa1, 0xbd, 0x02, 0xac, 0xf6, 0xbd, 0x28, 0x5e, 0xf5, 0xbd,
  0xcb, 0xdb, 0x40, 0x3e, 0x33, 0x92, 0x93, 0x3e, 0x7d, 0x89, 0x3c, 0xbe,
  0x3e, 0x19, 0x1f, 0x3d, 0x3c, 0xdc, 0xb0, 0xbc, 0x2e, 0x28, 0xcd, 0x3d,
  0x73, 0x14, 0x02, 0x3d, 0x51, 0x04, 0xcb, 0x3e, 0xb6, 0x5e, 0x7d, 0xbd,
  0x32, 0x03, 0xc7, 0x3e, 0xf5, 0x3a, 0x2a, 0x3e, 0x3c, 0x89, 0x8b, 0x3d,
  0xe8, 0x81, 0x51, 0xbe, 0xec, 0x79, 0x45, 0x3d, 0x7b, 0xc1, 0x21, 0xbe,
  0xbf, 0x38, 0x5e, 0x3e, 0xb3, 0xc1, 0xb8, 0x3d, 0x50, 0x7f, 0x61, 0x3e,
  0xc6, 0xd1, 0xbd, 0x3e, 0xd3, 0x66, 0x45, 0x3e, 0x8d, 0x3f, 0x78, 0x3e,
  0xbc, 0xed, 0xc0, 0xbd, 0x43, 0x6e, 0x8e, 0x3e, 0xe0, 0xf8, 0x9f, 0x3e,
  0xff, 0x62, 0x37, 0x3e, 0x72, 0x86, 0xc4, 0x3d, 0xed, 0x12, 0x51, 0x3d,
  0xe5, 0x44, 0x0e, 0x3e, 0xb3, 0x5a, 0x6c, 0x3d, 0xb6, 0x35, 0x21, 0x3e,
  0xa6, 0xdd, 0x2c, 0xbe, 0xec, 0x52, 0x07, 0xbe, 0x5a, 0x9c, 0x2b, 0xbd,
  0xc2, 0x39, 0x10, 0x3d, 0xa9, 0xf6, 0x64, 0x3d, 0x7e, 0xcf, 0x05, 0x3e,
  0x36, 0x07, 0xf6, 0x3d, 0x36, 0xc1, 0xee, 0xbc, 0xaf, 0xe2, 0xf3, 0xbd,
  0xe4, 0x88, 0xae, 0x3d, 0xff, 0x19, 0x32, 0x3e, 0xba, 0x73, 0x96, 0x3d,
  0xfa, 0x80, 0x62, 0xbe, 0x05, 0xf4, 0x14, 0x3d, 0xf1, 0x21, 0x4e, 0x3e,
  0x0a, 0x66, 0x20, 0xbe, 0x02, 0x8f, 0x02, 0xbe, 0x08, 0x3b, 0x23, 0x3e,
  0x8b, 0x07, 0x6d, 0x3e, 0xa8, 0x1c, 0x0d, 0x3e, 0xb1, 0x4e, 0x05, 0xbe,
  0xd7, 0xfc, 0x15, 0xbd, 0x4f, 0x6f, 0x21, 0xbc, 0x70, 0xcd, 0x43, 0xbe,
  0xb3, 0xba, 0x79, 0xbd, 0xd6, 0x9e, 0x96, 0xbe, 0x0f, 0xe2, 0xb0, 0x3c,
  0x46, 0x93, 0x3e, 0xbe, 0x3b, 0xc4, 0xcb, 0xbd, 0x5b, 0x66, 0x41, 0x3e,
  0x9f, 0xf9, 0x59, 0xbe, 0x13, 0xf7, 0x14, 0xbe, 0x2e, 0x62, 0x08, 0x3e,
  0x0f, 0x03, 0xac, 0x3d, 0x14, 0x10, 0x2c, 0x3e, 0x55, 0x1b, 0x57, 0x3e,
  0xbb, 0x4f, 0xf9, 0x3d, 0x90, 0x34, 0x1e, 0xbe, 0xb0, 0x53, 0x23, 0xbe,
  0xe1, 0xcc, 0x08, 0x3e, 0x56, 0x55, 0x42, 0xbc, 0x35, 0x25, 0x3f, 0x3d,
  0x4d, 0x97, 0x55, 0xbe, 0x74, 0x38, 0x68, 0xbe, 0x2c, 0xfe, 0xc5, 0x3d,
  0xa3, 0xf0, 0x15, 0x3d, 0x4d, 0x24, 0x57, 0x3e, 0x21, 0x9f, 0x56, 0xbe,
  0x99, 0xaf, 0x33, 0x3e, 0x2a, 0x27, 0x45, 0xbd, 0x23, 0x79, 0x49, 0x3e,
  0x21, 0xf6, 0x51, 0x3e, 0x8d, 0x09, 0x7a, 0x3d, 0x21, 0x18, 0x5e, 0xbe,
  0xc2, 0x8e, 0x59, 0x3e, 0xd3, 0x3c, 0x39, 0x3d, 0xf5, 0x96, 0x9a, 0xbd,
  0x05, 0xd1, 0x40, 0xbe, 0x03, 0xec, 0xfd, 0xbd, 0x79, 0xdc, 0xf4, 0xbc,
  0x96, 0x26, 0x29, 0xbd, 0x8e, 0x3b, 0xaa, 0xbd, 0xc0, 0x4f, 0x8d, 0x3d,
  0xe8, 0xec, 0xbf, 0x3d, 0x5d, 0xe6, 0x41, 0xbd, 0x30, 0xb7, 0x61, 0xbe,
  0xe0, 0xfc, 0xc0, 0xbd, 0xde, 0x81, 0x45, 0xbe, 0xba, 0xe7, 0x59, 0x3e,
  0xc3, 0x53, 0x59, 0xbd, 0x5a, 0x2d, 0x1a, 0x3e, 0xf7, 0xd0, 0x24, 0xbd,
  0x63, 0xcf, 0x18, 0xbe, 0xd9, 0x54, 0xe4, 0xbd, 0x52, 0x1c, 0x22, 0x3e,
  0xed, 0x27, 0x07, 0x3e, 0x75, 0x8a, 0x20, 0xbe, 0xf2, 0x29, 0xef, 0x3d,
  0x00, 0x14, 0x64, 0xbb, 0xce, 0x77, 0x38, 0x3e, 0x50, 0x6f, 0x0d, 0xbe,
  0x8e, 0xac, 0x81, 0xbd, 0x58, 0xf6, 0x34, 0xbd, 0x99, 0x00, 0x92, 0xbd,
  0x15, 0x2d, 0x3b, 0xbe, 0x20, 0x84, 0x42, 0x3d, 0x4d, 0xfb, 0xa9, 0x3d,
  0xb5, 0x7b, 0x00, 0xbe, 0xee, 0xf1, 0x2b, 0x3e, 0x5e, 0xad, 0x18, 0x3d,
  0x94, 0x26, 0x84, 0xbc, 0x73, 0x2e, 0x3a, 0xbd, 0xf3, 0xa3, 0xfd, 0xbd,
  0xf3, 0xe1, 0x4c, 0xbe, 0xe1, 0x9e, 0x8c, 0x39, 0x86, 0x37, 0x70, 0xbd,
  0x4e, 0xe8, 0x68, 0xbc, 0x47, 0x1f, 0x81, 0xbe, 0x8c, 0x60, 0x5f, 0xbe,
  0x94, 0x1a, 0x32, 0xbe, 0x8f, 0xc4, 0x5c, 0xbd, 0xc8, 0x70, 0xd2, 0xbc,
  0x48, 0xe8, 0x79, 0x3d, 0x8c, 0x9c, 0x25, 0xbe, 0xb9, 0x63, 0x96, 0x3d,
  0x22, 0xb0, 0xff, 0xbd, 0xd3, 0x13, 0x84, 0xbd, 0x9d, 0xb3, 0x6b, 0xbe,
  0x11, 0x4f, 0xf3, 0xbd, 0x73, 0xc0, 0x59, 0xbd, 0x3a, 0x03, 0x2a, 0x3e,
  0xf1, 0x8f, 0xae, 0x3d, 0x1c, 0x2e, 0x7a, 0x3e, 0x20, 0xf8, 0x70, 0xbe,
  0xcc, 0xb0, 0x57, 0xbe, 0x95, 0xed, 0x3b, 0xbe, 0x79, 0x19, 0x2a, 0x3e,
  0xfa, 0x71, 0xf8, 0x3d, 0x2d, 0x4c, 0xaa, 0xbd, 0xd0, 0xe8, 0x0d, 0xbe,
  0x12, 0xae, 0x4e, 0x3d, 0x15, 0xac, 0x69, 0xbe, 0x62, 0x88, 0x84, 0x3d,
  0x2e, 0xf6, 0x47, 0xbe, 0x83, 0x9a, 0x68, 0x3c, 0xed, 0x23, 0x1c, 0xbe,
  0x82, 0x98, 0x27, 0x3d, 0x9d, 0x0d, 0xcc, 0xbd, 0x75, 0x0f, 0x08, 0xbe,
  0xfb, 0x77, 0xd9, 0xbd, 0xd7, 0x80, 0x2f, 0x3e, 0x7e, 0xe4, 0x84, 0xbd,
  0xe3, 0x66, 0xb4, 0x3d, 0x39, 0x3c, 0x81, 0xbe, 0x39, 0x09, 0x6c, 0xbe,
  0xd4, 0xbc, 0x5b, 0x3e, 0xbe, 0xf0, 0x41, 0xbe, 0x1e, 0xbd, 0x28, 0xbe,
  0xc6, 0x7e, 0x45, 0xbe, 0x1d, 0x42, 0x3c, 0x3c, 0xd0, 0x8f, 0x6b, 0xbe,
  0x88, 0x7b, 0xfb, 0x3d, 0x2f, 0xd4, 0xa4, 0xbd, 0x03, 0x6b, 0x14, 0xbe,
  0xe9, 0x32, 0xae, 0xbd, 0x04, 0xd1, 0x8e, 0xbd, 0xb9, 0x56, 0x1c, 0xbe,
  0xa0, 0xa8, 0x43, 0x3d, 0x68, 0xc9, 0x3b, 0x3e, 0x9f, 0x83, 0x1f, 0x3e,
  0xa5, 0x3b, 0x0a, 0xbe, 0x67, 0xbd, 0x6e, 0xbe, 0x25, 0xb5, 0x56, 0x3e,
  0x58, 0xe5, 0xf6, 0x3d, 0xb3, 0x35, 0xb2, 0x3b, 0x63, 0xce, 0x41, 0x3e,
  0x05, 0x84, 0x68, 0xbe, 0x8a, 0x20, 0x84, 0xbd, 0x24, 0x26, 0x7b, 0x3e,
  0x7c, 0xdf, 0x69, 0xbe, 0x7c, 0xef, 0x5f, 0x3d, 0xc6, 0x45, 0x33, 0xbd,
  0xc3, 0x46, 0x2f, 0x3e, 0xe0, 0x42, 0xab, 0xbd, 0x36, 0x76, 0x5f, 0x3e,
  0x3b, 0xce, 0xec, 0x3b, 0x88, 0x43, 0x0d, 0xbe, 0x6e, 0x2e, 0x73, 0x3c,
  0xdf, 0x12, 0x59, 0xbe, 0xa7, 0x34, 0xbf, 0xbd, 0x8a, 0xf6, 0x42, 0xbe,
  0xf6, 0xaf, 0xf9, 0x3d, 0x21, 0xa9, 0x22, 0x3e, 0x80, 0x17, 0x24, 0x3e,
  0x49, 0xca, 0x25, 0x3d, 0x76, 0xbc, 0xf1, 0xbc, 0xbe, 0x8a, 0xb5, 0xbb,
  0xf3, 0x25, 0x44, 0x3e, 0x3c, 0x6d, 0x28, 0xbe, 0x60, 0x30, 0x35, 0x3d,
  0x7e, 0xda, 0xbf, 0xbd, 0xb7, 0x5e, 0xf1, 0x3d, 0xde, 0x8a, 0x4f, 0x3e,
  0x28, 0x4b, 0x99, 0x3d, 0x93, 0x19, 0x0e, 0xbe, 0x17, 0xa9, 0x2b, 0xbd,
  0xd5, 0x6b, 0x41, 0xbd, 0xa3, 0x77, 0x1a, 0xbe, 0x6c, 0x9c, 0x56, 0x3d,
  0xa9, 0x05, 0x55, 0x3e, 0x40, 0xee, 0xd1, 0xbc, 0x2e, 0xb5, 0xbe, 0xbd,
  0xa6, 0xf3, 0x9e, 0xbd, 0xb6, 0x94, 0x0b, 0xbe, 0x12, 0xa2, 0x3c, 0x3e,
  0xed, 0x4f, 0xe5, 0x3d, 0x6f, 0xaa, 0x17, 0xbe, 0xdc, 0x6d, 0xad, 0xbd,
  0xc2, 0x8e, 0xb5, 0xbd, 0x44, 0x31, 0x30, 0xbd, 0x01, 0x11, 0x4d, 0xbe,
  0xaf, 0xc0, 0xb0, 0x3d, 0xb6, 0xad, 0x42, 0x3e, 0xc9, 0xbe, 0x8c, 0xbe,
  0x56, 0x0b, 0x4b, 0x3e, 0x89, 0x61, 0x01, 0x3d, 0x4b, 0xff, 0x1f, 0xbc,
  0x8b, 0x67, 0x58, 0xbd, 0x3f, 0xbc, 0xd5, 0xbd, 0x7b, 0xb9, 0x82, 0x3e,
  0xf4, 0x11, 0x85, 0xbd, 0x7a, 0xc9, 0x98, 0xbd, 0xe0, 0xa8, 0x00, 0xbe,
  0x66, 0x6a, 0x0a, 0xbe, 0xbb, 0x11, 0x4c, 0x3e, 0xcb, 0xff, 0x1a, 0x3e,
  0xc5, 0x88, 0xdf, 0x3c, 0x46, 0xe9, 0x66, 0x3e, 0xbc, 0xb1, 0x4f, 0x3e,
  0x21, 0x4e, 0x54, 0xbe, 0xa4, 0xa9, 0xcb, 0xbd, 0xff, 0x33, 0xa9, 0x3d,
  0xbe, 0xb6, 0x0a, 0xbe, 0xcc, 0x8d, 0x3b, 0xbe, 0x82, 0xf5, 0x96, 0xbc,
  0xd2, 0xab, 0x9f, 0x3c, 0xad, 0x64, 0x81, 0xbe, 0xe4, 0x3b, 0x4d, 0xbe,
  0xb0, 0xaa, 0x85, 0x3d, 0xf4, 0x82, 0xa1, 0x3d, 0x02, 0x8f, 0x33, 0x3e,
  0xfc, 0x06, 0x53, 0x3d, 0xd1, 0xa5, 0x37, 0xbe, 0x5f, 0x35, 0x62, 0xbe,
  0xcf, 0x53, 0x03, 0xbe, 0x91, 0xe6, 0x4b, 0xbd, 0x1a, 0xc3, 0x6b, 0xbe,
  0xb6, 0x24, 0x6d, 0xbe, 0xb0, 0xc0, 0x0b, 0x3d, 0x81, 0x4f, 0x30, 0xbd,
  0x0c, 0xdd, 0x09, 0xbe, 0x8d, 0xaa, 0x33, 0x3e, 0xf8, 0x52, 0xab, 0xbb,
  0xa3, 0x31, 0x1b, 0xbd, 0x8f, 0xf2, 0x00, 0xbd, 0x3a, 0x2c, 0x84, 0xbe,
  0x21, 0x16, 0xc2, 0x3d, 0xb0, 0x64, 0x56, 0xbe, 0x6a, 0xe7, 0xb3, 0x3d,
  0xc5, 0xd0, 0x16, 0x3d, 0x7f, 0x07, 0xf9, 0xbd, 0x7a, 0x75, 0x98, 0xbc,
  0x5d, 0x61, 0x84, 0xbe, 0x16, 0x87, 0x33, 0x3e, 0x47, 0xb3, 0x81, 0x3e,
  0x79, 0x68, 0x8e, 0xbe, 0xb2, 0x1a, 0xcb, 0x3d, 0x33, 0xad, 0xaf, 0xbd,
  0x00, 0xa7, 0x6e, 0x3e, 0xc9, 0x7a, 0xa4, 0xbd, 0x34, 0xab, 0x26, 0x3d,
  0xa5, 0x85, 0x3b, 0xbe, 0xb0, 0x74, 0x3b, 0x3d, 0x3c, 0x25, 0x51, 0xbe,
  0x7c, 0x30, 0xf4, 0x3c, 0x3c, 0x07, 0x2d, 0x3e, 0xad, 0x5f, 0xd0, 0xbd,
  0x2b, 0x6e, 0x4e, 0xbe, 0xfa, 0xca, 0x6b, 0x3d, 0x39, 0x14, 0x6b, 0x3e,
  0x5b, 0xc1, 0xd7, 0x3c, 0x5c, 0x4f, 0xec, 0xbd, 0x48, 0xeb, 0x42, 0x3e,
  0xf5, 0x9b, 0xf9, 0x3d, 0x64, 0x7e, 0x5e, 0xbe, 0x4e, 0xd3, 0x93, 0x3e,
  0x3b, 0xf8, 0xd7, 0x3c, 0x0b, 0x81, 0x5b, 0xbd, 0x8b, 0x81, 0xb6, 0x3c,
  0xa2, 0xba, 0x22, 0x3e, 0x6b, 0xd7, 0x7a, 0x3e, 0x14, 0x8d, 0x07, 0x3e,
  0xf2, 0x0c, 0xf2, 0xbd, 0xf6, 0x0a, 0xab, 0xbd, 0xfa, 0xbf, 0x8f, 0xbe,
  0x4e, 0x83, 0x6b, 0xbe, 0xfb, 0x5e, 0x8f, 0xbe, 0x7c, 0xb9, 0xef, 0x3d,
  0xab, 0xba, 0x0a, 0xbd, 0xf2, 0xbe, 0x92, 0x3e, 0x99, 0xbc, 0xff, 0xbc,
  0x14, 0x7a, 0x90, 0x3a, 0x4a, 0x67, 0x7b, 0xbe, 0x40, 0x06, 0xe4, 0x3d,
  0x9c, 0xe4, 0xb9, 0x3c, 0x19, 0x79, 0x03, 0xbe, 0x50, 0x09, 0x4b, 0xbe,
  0xc4, 0x9e, 0x48, 0x3e, 0x52, 0xeb, 0xe4, 0xbd, 0x96, 0x90, 0x46, 0x3e,
  0x7d, 0xf7, 0xcf, 0xbd, 0xd3, 0x4c, 0x7f, 0x3d, 0x48, 0xff, 0x1a, 0x3d,
  0x93, 0xc4, 0x08, 0x3e, 0x26, 0xe2, 0x6a, 0xbe, 0x1c, 0xfa, 0xf6, 0x3d,
  0x9e, 0x48, 0x11, 0x3b, 0x86, 0x0e, 0x17, 0x3e, 0x70, 0x1a, 0x4a, 0xbe,
  0xe5, 0x44, 0x8c, 0x3c, 0x8c, 0x3a, 0x0f, 0xbe, 0xbb, 0x34, 0x06, 0x3e,
  0xa0, 0x05, 0x09, 0xbe, 0x03, 0x6c, 0x42, 0xbd, 0x0c, 0x22, 0x49, 0x3e,
  0x9b, 0x0d, 0x73, 0x3d, 0x94, 0xb2, 0xbb, 0xbd, 0xb6, 0xbe, 0x9b, 0xbd,
  0x37, 0x6c, 0xbd, 0xbd, 0x76, 0x39, 0x9b, 0x3d, 0x9e, 0xf7, 0xe8, 0xbd,
  0x6d, 0x7c, 0x31, 0x3e, 0xcf, 0xe2, 0x9f, 0x3e, 0x27, 0xae, 0x87, 0x3e,
  0xd2, 0xb6, 0x44, 0xbe, 0x80, 0xbe, 0x11, 0xbe, 0x91, 0x08, 0x66, 0x3e,
  0xb9, 0xce, 0x98, 0x3e, 0x8a, 0x40, 0x93, 0x3e, 0xf1, 0x36, 0x35, 0x3d,
  0x55, 0xdc, 0x10, 0xbd, 0x05, 0x4a, 0x9e, 0xbe, 0x7f, 0x25, 0xe1, 0x3c,
  0x19, 0x3d, 0x93, 0xbc, 0xcd, 0x1b, 0x4b, 0x3e, 0x67, 0x67, 0x83, 0x3e,
  0xdd, 0x36, 0x24, 0xbe, 0xeb, 0x17, 0xa6, 0x3e, 0x6f, 0x31, 0xfb, 0x3d,
  0xd8, 0x6d, 0x5e, 0x3e, 0x5f, 0xce, 0x00, 0x3e, 0x11, 0x2c, 0x91, 0x3d,
  0xbf, 0x9c, 0x0d, 0xbe, 0xa6, 0x5c, 0x61, 0x3e, 0x61, 0x90, 0xa4, 0x3e,
  0xad, 0xed, 0x06, 0x3e, 0x61, 0x28, 0x92, 0x3e, 0x84, 0x05, 0xf4, 0x3d,
  0xdf, 0x5e, 0xa1, 0x3e, 0x39, 0xdb, 0xb4, 0x3e, 0x71, 0xaf, 0xac, 0xbd,
  0x53, 0xaa, 0x1c, 0x3e, 0x6c, 0x7c, 0x6b, 0xbe, 0x2f, 0x4b, 0x53, 0x3c,
  0x8e, 0x58, 0x26, 0x3e, 0xf9, 0x75, 0x7b, 0x3d, 0xcb, 0x98, 0x6c, 0xbe,
  0xa6, 0x1b, 0x8f, 0x3e, 0x5f, 0xc4, 0xbe, 0x3d, 0xf8, 0x37, 0x9e, 0x3e,
  0xb2, 0x38, 0x82, 0x3e, 0x7e, 0xe0, 0x9c, 0x3b, 0x7f, 0xa3, 0x1d, 0x3d,
  0xe0, 0xa2, 0x22, 0x3e, 0x6e, 0xbe, 0x2c, 0x3c, 0x4a, 0xea, 0xb5, 0x3e,
  0x55, 0xc1, 0xf0, 0x3c, 0x6e, 0x41, 0x33, 0x3d, 0x01, 0x4f, 0xfc, 0x3d,
  0xfa, 0xd4, 0xd2, 0xbd, 0x9a, 0x57, 0xa6, 0x3e, 0x58, 0x4b, 0xc4, 0x3d,
  0xf4, 0x18, 0xac, 0x3c, 0x57, 0x9d, 0xa4, 0x3d, 0x28, 0x2d, 0xe4, 0xbd,
  0xb7, 0xbd, 0xb3, 0x3e, 0x99, 0x85, 0x09, 0xbe, 0xa3, 0x3c, 0x2b, 0x3e,
  0x9c, 0x3f, 0xa8, 0x3e, 0x09, 0x36, 0x89, 0x3d, 0xe3, 0x23, 0x5d, 0x3e,
  0xd5, 0x19, 0xb9, 0x3e, 0x0e, 0x3b, 0x67, 0xbd, 0xc4, 0xbe, 0xe7, 0x3d,
  0xb0, 0x8a, 0x88, 0x3e, 0x54, 0xd3, 0x74, 0xbe, 0x32, 0x2b, 0xa1, 0x3d,
  0x88, 0xe7, 0xa2, 0x3e, 0xa3, 0x55, 0x23, 0x3e, 0xb6, 0x26, 0xa5, 0x3e,
  0xf3, 0x62, 0xb9, 0xbd, 0x2d, 0x7f, 0x0c, 0x3e, 0xa2, 0x98, 0xbc, 0xbe,
  0xf7, 0x91, 0xa4, 0xbd, 0xf0, 0x86, 0x42, 0x3e, 0x27, 0xc2, 0x7f, 0x3e,
  0xc8, 0x71, 0x8a, 0x3e, 0xff, 0xb2, 0x7f, 0xbe, 0xc4, 0x00, 0x1f, 0x3c,
  0x5c, 0xfa, 0x3a, 0xbe, 0x04, 0x36, 0xa7, 0x3e, 0xdb, 0xad, 0xa9, 0xbe,
  0x21, 0x05, 0xc8, 0x3c, 0x2d, 0x92, 0x69, 0x3e, 0x33, 0x6b, 0xb1, 0x3d,
  0xa4, 0x58, 0xab, 0x3c, 0xde, 0x33, 0x8e, 0x3d, 0x47, 0xd0, 0x45, 0x3e,
  0x11, 0xd2, 0x3e, 0x3d, 0xf9, 0xbb, 0x92, 0xbe, 0xcb, 0xee, 0x88, 0x3e,
  0x53, 0x93, 0x56, 0x3e, 0xd1, 0x3b, 0xcb, 0xbe, 0xad, 0x3d, 0xc7, 0xbe,
  0x52, 0xc8, 0x1f, 0xbe, 0x94, 0x5d, 0xb8, 0xbe, 0x99, 0xfb, 0x97, 0xbd,
  0x9c, 0x84, 0x81, 0x3d, 0x06, 0x8d, 0xc6, 0xbd, 0xd4, 0xc1, 0x0b, 0x3d,
  0xf0, 0x9d, 0x84, 0xbd, 0x90, 0x12, 0x0e, 0xbe, 0x2b, 0xe9, 0xe1, 0xb9,
  0x74, 0x2b, 0x80, 0xbc, 0x10, 0x00, 0xe5, 0xbc, 0xaf, 0x6b, 0xc2, 0xbe,
  0x12, 0x66, 0x9f, 0xbe, 0x60, 0x62, 0xc5, 0x3d, 0x44, 0x0a, 0x22, 0xbd,
  0xcb, 0x7b, 0x65, 0xbe, 0x22, 0xf2, 0xe4, 0x3d, 0x36, 0x88, 0x1e, 0x3d,
  0x7c, 0x1c, 0x0d, 0x3e, 0xe0, 0x8a, 0x33, 0x3e, 0x7a, 0x7f, 0xda, 0xbd,
  0x9f, 0x6b, 0x71, 0x3e, 0x43, 0xfa, 0xc5, 0x3c, 0xdf, 0x81, 0x3d, 0xbd,
  0x49, 0xa2, 0xbf, 0x3d, 0xfb, 0x9a, 0x00, 0xbd, 0x9d, 0xec, 0x34, 0xbe,
  0x26, 0x86, 0x06, 0xbe, 0x5e, 0x66, 0x04, 0xbe, 0xfd, 0xe8, 0xa0, 0x3d,
  0xe8, 0x5b, 0x00, 0x3d, 0x4a, 0xcd, 0x8c, 0xbe, 0x2c, 0xe5, 0xe3, 0x3c,
  0x3c, 0xca, 0x66, 0xbd, 0x5e, 0x93, 0x47, 0x3d, 0x8d, 0x80, 0xab, 0x3a,
  0xdd, 0x4e, 0x51, 0xbd, 0xed, 0x85, 0xf6, 0xbd, 0xb8, 0x15, 0x40, 0xbe,
  0xa2, 0x4c, 0x8f, 0xbd, 0xd0, 0xe5, 0x64, 0xbd, 0xea, 0x97, 0xbe, 0x3e,
  0xd2, 0x54, 0x4e, 0x3e, 0x50, 0x4b, 0x08, 0x3c, 0x84, 0x7b, 0x05, 0x3e,
  0x59, 0xac, 0xbf, 0xbe, 0x03, 0xdf, 0x23, 0xbe, 0x52, 0x6b, 0xf4, 0xbc,
  0x20, 0xea, 0x8b, 0x3e, 0x4f, 0x0c, 0xd9, 0x3e, 0x07, 0x0e, 0xa1, 0x3c,
  0x59, 0x7e, 0xb1, 0x3d, 0x6f, 0x63, 0xd7, 0x3d, 0x97, 0x35, 0x2c, 0x3d,
  0xa7, 0x7b, 0x29, 0xbe, 0x29, 0xf3, 0x18, 0xbd, 0xa1, 0x57, 0xd5, 0x3d,
  0x21, 0x55, 0xee, 0x3c, 0x31, 0xe5, 0x03, 0xbe, 0xf8, 0x77, 0xb4, 0x3e,
  0x91, 0x44, 0x1b, 0xbe, 0xcd, 0x6b, 0x32, 0x3d, 0x4c, 0xf5, 0x60, 0x3e,
  0x4f, 0xa4, 0xc8, 0x3d, 0xea, 0xc8, 0x90, 0x3e, 0xca, 0x44, 0xca, 0x3b,
  0x0f, 0xa8, 0x50, 0xbe, 0xe6, 0xbc, 0xae, 0xbe, 0x60, 0xdf, 0x4b, 0x3c,
  0x18, 0x4a, 0x3b, 0x3d, 0xfe, 0x8c, 0x8f, 0xbd, 0x87, 0x3c, 0x78, 0x3e,
  0xb4, 0x3c, 0x8f, 0x3e, 0x4b, 0x06, 0xeb, 0x3d, 0x8b, 0x53, 0x97, 0xbc,
  0x0c, 0xa2, 0x3c, 0x3e, 0x99, 0xda, 0xac, 0x3e, 0xfd, 0x59, 0x1f, 0x3e,
  0xad, 0xdb, 0xea, 0x3e, 0xd8, 0xa8, 0xc0, 0x39, 0x11, 0x9d, 0x8b, 0xbe,
  0x5b, 0x7b, 0x3a, 0x3e, 0x3e, 0x75, 0x8b, 0xbd, 0xf2, 0x3e, 0x37, 0x3e,
  0x92, 0xe1, 0x68, 0x3e, 0x49, 0x65, 0x04, 0xbd, 0xf9, 0xb7, 0xd2, 0x3e,
  0xea, 0x97, 0xd1, 0xbd, 0x15, 0x26, 0x0d, 0xbe, 0xe4, 0x85, 0xcb, 0x3d,
  0x24, 0x58, 0xa1, 0xbd, 0x2d, 0xa4, 0x4d, 0x3e, 0x8c, 0x77, 0x12, 0x3a,
  0x2a, 0x05, 0x9d, 0x3e, 0x97, 0x52, 0x54, 0x3e, 0x7f, 0x98, 0xbe, 0x3e,
  0xbd, 0xe0, 0x1b, 0x3d, 0x55, 0x7a, 0x1e, 0xbe, 0xa2, 0x83, 0x23, 0xbe,
  0x2d, 0x59, 0x41, 0x3e, 0xe4, 0x65, 0x86, 0x3e, 0x85, 0x4a, 0x22, 0xbe,
  0x3b, 0x15, 0x06, 0x3e, 0xbf, 0xa5, 0xf8, 0x3d, 0xf9, 0x89, 0x1d, 0x3e,
  0x9b, 0x92, 0xa2, 0x3d, 0x4d, 0xb9, 0x6a, 0x3e, 0xc1, 0xfc, 0x71, 0xbd,
  0x92, 0x55, 0x9a, 0x3e, 0x43, 0xa6, 0x5e, 0x3c, 0x7c, 0xbc, 0x7b, 0x3e,
  0xf0, 0xeb, 0xb3, 0xbd, 0x95, 0x20, 0x8a, 0xbc, 0xdf, 0xa6, 0x90, 0x3e,
  0x5a, 0x25, 0x4d, 0x3e, 0xb0, 0x5d, 0x07, 0x3e, 0xa1, 0xe2, 0xe5, 0x3c,
  0x22, 0x50, 0xd7, 0xbc, 0x26, 0x65, 0xe4, 0xbd, 0xc2, 0xaf, 0xa2, 0xba,
  0xcf, 0x1a, 0x06, 0x3e, 0xb8, 0x5d, 0x15, 0x3c, 0x27, 0x1c, 0xf9, 0x3c,
  0xc4, 0xc2, 0xb7, 0x3e, 0x21, 0x31, 0xe5, 0xbd, 0xe2, 0x55, 0x7c, 0x3e,
  0x07, 0x5b, 0xb1, 0x3d, 0x28, 0x76, 0xa4, 0x3e, 0xcc, 0xff, 0x73, 0x3d,
  0x5f, 0xaa, 0xa5, 0x3e, 0xc5, 0x34, 0xe6, 0xbd, 0x0b, 0x84, 0x90, 0xbe,
  0x0b, 0x73, 0x05, 0xbd, 0x89, 0x4a, 0x1a, 0x3e, 0x6b, 0xe5, 0x3e, 0x3e,
  0xc2, 0x7d, 0xac, 0x3c, 0xf2, 0x48, 0x4d, 0x3e, 0x5e, 0x67, 0xe7, 0xbc,
  0x8d, 0xac, 0x03, 0xbc, 0x0b, 0x10, 0x35, 0x3e, 0x9c, 0x2e, 0x75, 0xbc,
  0x07, 0x01, 0xae, 0x3e, 0x0b, 0x2c, 0x1b, 0x3d, 0xfd, 0xb7, 0x47, 0xbd,
  0x60, 0xfc, 0x8f, 0xbe, 0x4c, 0x6a, 0x09, 0x3e, 0x29, 0x97, 0x29, 0x3e,
  0xe0, 0xf1, 0x2d, 0x3e, 0x62, 0x28, 0x3d, 0x3e, 0x78, 0x55, 0x6d, 0x3e,
  0x23, 0x5e, 0x1f, 0x3e, 0xe0, 0x41, 0x39, 0xbe, 0x0e, 0xf7, 0x85, 0x3d,
  0x9f, 0xeb, 0xfb, 0x3d, 0xac, 0x1a, 0x6a, 0x3e, 0xb1, 0x3c, 0xd5, 0x3c,
  0x9c, 0x85, 0xa7, 0xbb, 0x3b, 0x22, 0xf0, 0xbd, 0xf7, 0x95, 0x10, 0x3d,
  0xe7, 0x14, 0xac, 0xbc, 0x89, 0x3d, 0x45, 0xbe, 0xec, 0xe4, 0xa7, 0x3d,
  0xf0, 0xbf, 0x6c, 0xbe, 0x4f, 0xc3, 0x01, 0xbe, 0x51, 0x01, 0xc2, 0x3d,
  0x60, 0x15, 0x7e, 0x3d, 0x0a, 0xf5, 0x44, 0x3d, 0xa9, 0x72, 0x49, 0xbe,
  0x22, 0x1c, 0xeb, 0x3d, 0x06, 0xaa, 0x5a, 0x3d, 0xcb, 0x34, 0x0c, 0xbe,
  0x06, 0x9a, 0xaf, 0xbd, 0xab, 0x2e, 0xe1, 0xbd, 0x9b, 0x39, 0x57, 0x3e,
  0xf4, 0x74, 0x39, 0x3e, 0x39, 0x8c, 0x65, 0xbe, 0xa7, 0x53, 0xdd, 0xbd,
  0x93, 0x63, 0x49, 0xbe, 0x44, 0x15, 0x03, 0xbc, 0x03, 0x03, 0x64, 0x3d,
  0xa0, 0x16, 0x8a, 0x3c, 0xcf, 0xf8, 0x33, 0x3d, 0xef, 0x87, 0x0e, 0x3d,
  0xfb, 0x65, 0xf5, 0x3d, 0xaa, 0x65, 0xb0, 0x39, 0xaf, 0x60, 0x88, 0x3d,
  0x78, 0xe4, 0x3f, 0xbe, 0xb1, 0x94, 0x93, 0xbd, 0x93, 0xa8, 0x13, 0x3d,
  0x8a, 0x4c, 0x27, 0xbe, 0x40, 0xe7, 0x30, 0x3c, 0x6e, 0x74, 0xd7, 0x3c,
  0xbc, 0xec, 0xb6, 0x3d, 0xa2, 0xa6, 0x74, 0xbe, 0x76, 0x8b, 0x8a, 0xbd,
  0x51, 0x60, 0x6c, 0xbd, 0xc9, 0x92, 0x4d, 0x3e, 0xac, 0x30, 0x06, 0x3d,
  0xae, 0x00, 0x21, 0x3e, 0x90, 0xe0, 0x7f, 0xbe, 0x44, 0xee, 0x69, 0x3d,
  0xe1, 0x8f, 0xd1, 0x3d, 0xac, 0x87, 0x20, 0xbe, 0xb5, 0x91, 0x8b, 0xbe,
  0x9b, 0xe8, 0x84, 0xbe, 0x99, 0x34, 0x54, 0x3e, 0x49, 0xfe, 0x3d, 0x3e,
  0x05, 0x34, 0x26, 0x3e, 0xc0, 0xa3, 0x2a, 0xbe, 0xc0, 0xee, 0xbc, 0xbd,
  0x97, 0xe2, 0x28, 0x3e, 0xaa, 0x42, 0x1c, 0x3e, 0x88, 0xd9, 0xaf, 0xbd,
  0x80, 0x15, 0x1e, 0xbe, 0x9b, 0x00, 0x39, 0x3e, 0xf1, 0x6d, 0x44, 0xbe,
  0xda, 0x6c, 0x1e, 0x3e, 0x1e, 0x29, 0x0d, 0x3c, 0xf3, 0xee, 0x19, 0x3d,
  0x5a, 0x81, 0xec, 0xbd, 0x83, 0xd6, 0xea, 0x3b, 0x4c, 0x10, 0x82, 0xbe,
  0x4b, 0xc1, 0x56, 0xbe, 0xd6, 0xbf, 0xaf, 0x3d, 0xa5, 0x69, 0xdf, 0x3d,
  0xe0, 0x56, 0x6e, 0x3c, 0x1e, 0x6b, 0x18, 0x3e, 0xf4, 0x63, 0x50, 0x3c,
  0xec, 0x20, 0xc9, 0xbd, 0xce, 0x23, 0xa4, 0xbd, 0xf3, 0xf3, 0x58, 0xbe,
  0x77, 0xf5, 0x5a, 0xbe, 0x5d, 0xb7, 0x44, 0xbe, 0x6e, 0xed, 0x81, 0xbe,
  0xdf, 0x23, 0x85, 0x3d, 0x65, 0xfd, 0x4d, 0x3e, 0xe6, 0xff, 0x5c, 0xbd,
  0x9b, 0xc8, 0x3f, 0x3e, 0xb5, 0xed, 0x95, 0x3d, 0x54, 0x59, 0x24, 0xbe,
  0x91, 0x4c, 0x2a, 0xbe, 0xbc, 0x9a, 0xd6, 0xbd, 0x6b, 0x3a, 0xf0, 0x3d,
  0xcd, 0xca, 0x73, 0xbe, 0x1b, 0x0c, 0x56, 0x3e, 0x6d, 0x39, 0x1f, 0xbe,
  0xe0, 0xee, 0x41, 0xbd, 0xf1, 0xe2, 0x61, 0xbd, 0x22, 0x61, 0x57, 0x3e,
  0x95, 0x50, 0x6a, 0xbe, 0xcb, 0xba, 0x44, 0x3d, 0x19, 0x6f, 0xc8, 0xbd,
  0x29, 0x30, 0x5c, 0xbe, 0xb2, 0x4b, 0x09, 0xbe, 0xcf, 0x75, 0x2f, 0x3e,
  0x23, 0x6b, 0xd0, 0x3d, 0x65, 0x51, 0x8f, 0xbc, 0xaf, 0x08, 0x7a, 0xbe,
  0x96, 0xc6, 0xf0, 0xbc, 0x48, 0xff, 0x52, 0x3e, 0xc5, 0x32, 0x53, 0xbe,
  0xf1, 0x5a, 0x61, 0xbd, 0x8b, 0xd2, 0x52, 0x3e, 0x84, 0xb6, 0x8e, 0x3d,
  0xce, 0x47, 0xe8, 0xbd, 0xe4, 0xad, 0xec, 0xbb, 0x84, 0x22, 0xcf, 0x3c,
  0x15, 0x59, 0xa8, 0x3d, 0xb1, 0x68, 0x68, 0xbe, 0x09, 0x33, 0x2d, 0x3e,
  0x06, 0x86, 0xb6, 0xbd, 0x9d, 0x55, 0x9a, 0xbd, 0x4b, 0xd9, 0xc5, 0xbd,
  0x71, 0x86, 0x11, 0x3e, 0x69, 0xf3, 0x41, 0xbd, 0xd4, 0x88, 0x41, 0x3e,
  0x9f, 0x32, 0x63, 0x3e, 0x21, 0x6e, 0x40, 0xbe, 0xa8, 0x2d, 0x03, 0xbe,
  0x75, 0x1b, 0x66, 0xbe, 0x84, 0x01, 0x1b, 0x3e, 0xf6, 0x36, 0x6f, 0x3d,
  0x37, 0x70, 0x38, 0xbe, 0x80, 0x83, 0x3e, 0x3e, 0x01, 0xc9, 0x1c, 0xbe,
  0xd1, 0xaf, 0x52, 0xbe, 0xf7, 0x0e, 0x2b, 0xbe, 0xbc, 0x28, 0xb3, 0x3d,
  0x97, 0x7b, 0xe5, 0xbd, 0x1a, 0x59, 0x2c, 0x3e, 0x7d, 0x22, 0xf0, 0x3d,
  0x6e, 0x68, 0x9f, 0x3d, 0xa1, 0x1c, 0xef, 0x3c, 0x57, 0x61, 0x58, 0x3e,
  0xf5, 0x50, 0x13, 0x3e, 0x3e, 0x77, 0x9f, 0x3d, 0xd5, 0xff, 0x8e, 0x3d,
  0x72, 0x53, 0xf6, 0x3d, 0x1b, 0xc4, 0xad, 0x3e, 0x87, 0x87, 0x85, 0xbe,
  0x97, 0x8a, 0xa6, 0x3d, 0xb1, 0x71, 0x4f, 0xbe, 0xf7, 0xa7, 0x93, 0xbc,
  0xb9, 0xc8, 0xe9, 0x3d, 0xbf, 0x4b, 0xa2, 0x3e, 0x16, 0xdc, 0x8c, 0x3e,
  0x85, 0xd3, 0xa4, 0xbd, 0x97, 0x1c, 0x98, 0xbc, 0xf0, 0xde, 0xd2, 0xbb,
  0xdf, 0x71, 0x8e, 0x3b, 0x6a, 0x9d, 0x48, 0x3e, 0x7c, 0x4b, 0xdf, 0xbd,
  0x12, 0x1a, 0x03, 0x3e, 0x87, 0x69, 0x14, 0xbe, 0x55, 0x08, 0x6f, 0xbd,
  0x4a, 0x2c, 0x68, 0x3b, 0xea, 0x3f, 0x15, 0xbe, 0xc0, 0x37, 0x37, 0x3e,
  0x89, 0xa0, 0x03, 0x3e, 0x19, 0x18, 0x8a, 0x3e, 0x9a, 0x0f, 0x9c, 0x3e,
  0x5b, 0xe8, 0xc4, 0x3c, 0xf0, 0x91, 0x6a, 0xbd, 0x93, 0x09, 0x45, 0xbe,
  0x77, 0x97, 0x1b, 0xbd, 0x90, 0x37, 0x3f, 0x3e, 0xd1, 0x10, 0x3b, 0x3d,
  0x8b, 0x57, 0x13, 0xbe, 0x09, 0x16, 0xe9, 0x3d, 0xa6, 0x35, 0xea, 0xbd,
  0xa5, 0x30, 0x85, 0x3e, 0xa4, 0xd1, 0x93, 0xbd, 0x55, 0xc8, 0xa7, 0x3e,
  0xe7, 0x36, 0x9e, 0x3e, 0x6e, 0xf3, 0xb4, 0x3e, 0xb1, 0x9a, 0x68, 0x3e,
  0x04, 0x17, 0x96, 0xbd, 0xf5, 0xc7, 0x8e, 0x3e, 0x91, 0x81, 0x40, 0xbe,
  0xd0, 0x69, 0xe9, 0xbd, 0x4e, 0x30, 0x63, 0x3e, 0xcb, 0x2d, 0x6a, 0x3e,
  0x85, 0x19, 0x1c, 0x3e, 0x57, 0xe2, 0x16, 0xbd, 0x67, 0x66, 0xd6, 0x3d,
  0x9d, 0x7e, 0x8a, 0x3e, 0x7e, 0x64, 0xa9, 0xbd, 0xea, 0x94, 0xa8, 0x3e,
  0xc4, 0xf9, 0x90, 0x3e, 0xf7, 0x34, 0x71, 0x3e, 0x05, 0xde, 0xdf, 0x3d,
  0x6d, 0x26, 0x95, 0x3d, 0xfc, 0x1c, 0x6a, 0x3d, 0xf8, 0xe4, 0x9d, 0x3e,
  0xdf, 0xe8, 0x16, 0xbe, 0xb2, 0xd5, 0x5a, 0x3e, 0x86, 0x33, 0xb8, 0x3e,
  0x43, 0xa0, 0x00, 0x3d, 0xd2, 0x33, 0x58, 0xbe, 0xe5, 0x0f, 0x41, 0xbe,
  0x5e, 0xba, 0x22, 0x3d, 0x2d, 0x29, 0x69, 0x3d, 0x61, 0x80, 0xa4, 0x3e,
  0xb4, 0x14, 0x8a, 0xbe, 0x51, 0x83, 0xcf, 0x3c, 0xc2, 0xd5, 0x85, 0xbe,
  0x22, 0xce, 0x8f, 0x3e, 0xb5, 0xad, 0x93, 0x3e, 0xa5, 0xf9, 0x79, 0x3e,
  0x2f, 0xf8, 0x5a, 0x3e, 0xa2, 0xf3, 0x2a, 0x3e, 0x68, 0x2a, 0x87, 0xbd,
  0x2e, 0x8b, 0xb3, 0x3e, 0x82, 0x1a, 0xa7, 0x3e, 0x91, 0x00, 0x45, 0xbe,
  0x35, 0xd1, 0x1f, 0x3e, 0x33, 0x50, 0x02, 0xbe, 0xfd, 0x8b, 0x33, 0xbe,
  0xc2, 0x20, 0x84, 0x3e, 0xca, 0x2f, 0x38, 0x3e, 0x77, 0x4a, 0x40, 0x3e,
  0xdc, 0xfb, 0xac, 0x3e, 0x8c, 0x9f, 0x8c, 0xbc, 0x68, 0x0b, 0x80, 0x3d,
  0xcb, 0xc2, 0x86, 0x3e, 0x8f, 0xee, 0x61, 0x3d, 0x66, 0xbc, 0x51, 0xbe,
  0x80, 0xf7, 0x51, 0x3d, 0x4c, 0xcb, 0x6d, 0xbd, 0x38, 0x6d, 0xa5, 0xbd,
  0x46, 0x33, 0x8a, 0xbe, 0x18, 0xc5, 0x1d, 0x3e, 0x1d, 0x37, 0x9e, 0x3e,
  0x98, 0x8f, 0xad, 0x3e, 0xc1, 0x89, 0x56, 0x3e, 0xe2, 0x46, 0xbc, 0xbd,
  0x3c, 0xde, 0xa1, 0x3d, 0xd4, 0xd6, 0x00, 0xbc, 0xcc, 0x9c, 0x16, 0xbd,
  0x33, 0x28, 0xb6, 0x3d, 0x14, 0xa2, 0x70, 0xbe, 0xe4, 0xa2, 0x8e, 0x3e,
  0x37, 0xc4, 0x65, 0x3d, 0xb6, 0xac, 0x16, 0xbd, 0x72, 0x55, 0x50, 0x3e,
  0xb6, 0xe9, 0x42, 0xbd, 0xc4, 0xa0, 0xcd, 0xbc, 0xae, 0x7f, 0xe6, 0xbd,
  0x1a, 0x6b, 0x45, 0x3d, 0xaf, 0x44, 0x9b, 0x3e, 0x97, 0x39, 0x0c, 0x3d,
  0x16, 0x65, 0x5b, 0x3d, 0x34, 0xc0, 0x23, 0x3e, 0xa5, 0xf0, 0xf9, 0xbd,
  0x97, 0xb3, 0x44, 0x3b, 0x26, 0x33, 0xcd, 0xba, 0x49, 0x44, 0xa3, 0x3e,
  0x1f, 0x5d, 0x7e, 0x3d, 0x24, 0x41, 0xd8, 0xbd, 0xe4, 0x50, 0xbe, 0x3e,
  0xc4, 0x03, 0xd3, 0x3c, 0x2c, 0x9e, 0x98, 0x3c, 0x27, 0xf0, 0x89, 0x3e,
  0x78, 0xbc, 0x2e, 0xbe, 0xe9, 0x59, 0x74, 0x3e, 0xf8, 0xa9, 0xc4, 0xbd,
  0x1d, 0xfe, 0x32, 0x3e, 0xed, 0xaf, 0xf2, 0xbd, 0x2f, 0xd6, 0x1c, 0x3e,
  0x2f, 0xab, 0xb0, 0xbe, 0xf9, 0xe2, 0xb2, 0xbd, 0xd2, 0x67, 0x89, 0x3d,
  0xba, 0x60, 0x1a, 0xbd, 0x76, 0x16, 0xff, 0x3d, 0x0c, 0xa2, 0x70, 0x3e,
  0x05, 0xc2, 0x72, 0xbd, 0xe5, 0x5a, 0xb1, 0x3e, 0x38, 0xfb, 0xbe, 0x3e,
  0xc5, 0x9c, 0xbb, 0x3c, 0xbe, 0x07, 0xbb, 0x3e, 0x2a, 0x5a, 0xfa, 0xbc,
  0x26, 0xa3, 0x36, 0xbe, 0xca, 0xd8, 0x5f, 0x3e, 0x49, 0xee, 0x44, 0x3e,
  0xb2, 0x23, 0x02, 0xbe, 0xc9, 0x4c, 0x9a, 0x3d, 0xbe, 0xfd, 0xab, 0x3e,
  0x8e, 0x47, 0xbe, 0x3e, 0x81, 0x7d, 0x92, 0x3e, 0xb5, 0x80, 0xbd, 0x3e,
  0x10, 0x5f, 0x8e, 0xbd, 0x1f, 0x68, 0x10, 0x3d, 0xd6, 0x58, 0xb2, 0x3d,
  0x09, 0x17, 0x8e, 0x3e, 0xd5, 0x06, 0x10, 0x3e, 0xdb, 0x1f, 0x6a, 0x3e,
  0xf4, 0xd6, 0x81, 0x3e, 0x82, 0x20, 0x4c, 0x3e, 0x7f, 0x56, 0xf2, 0x3d,
  0xd4, 0xd8, 0x86, 0x3e, 0xaa, 0xd3, 0xad, 0xbd, 0xdf, 0x8f, 0xc4, 0x3e,
  0xa9, 0xe6, 0x00, 0x3e, 0x36, 0xa8, 0x06, 0xbe, 0x8d, 0x83, 0x36, 0xbe,
  0x42, 0xe1, 0xb0, 0x3d, 0x7d, 0xd5, 0x0d, 0xbe, 0x1e, 0xdc, 0xbe, 0x3c,
  0x73, 0x3b, 0x8a, 0x3e, 0xfe, 0xeb, 0xce, 0x3c, 0x26, 0x5f, 0x68, 0x3e,
  0x4f, 0xcd, 0xfe, 0x3d, 0xe1, 0xb3, 0x06, 0x3e, 0x53, 0x2f, 0xe8, 0x3d,
  0xc9, 0xe3, 0x94, 0x3e, 0xb6, 0x94, 0x3b, 0x3d, 0x3e, 0xf8, 0x84, 0x3e,
  0xb1, 0x5f, 0x86, 0x3e, 0xd4, 0xb0, 0x9d, 0x3e, 0x3f, 0x31, 0x69, 0x3d,
  0x5a, 0xd6, 0x8c, 0x3e, 0x2f, 0xa3, 0x67, 0x3e, 0xf0, 0x25, 0x1c, 0x3e,
  0xb6, 0x04, 0xef, 0x3c, 0x8c, 0x8d, 0xab, 0xbd, 0xcd, 0x18, 0x43, 0xbd,
  0x02, 0x7e, 0xf8, 0x3d, 0xef, 0xd9, 0x53, 0x3e, 0x59, 0x49, 0x2c, 0xbe,
  0x6b, 0x8c, 0x24, 0x3c, 0x7d, 0x5c, 0xa3, 0x3c, 0x51, 0x62, 0x02, 0x3d,
  0x49, 0x72, 0xf2, 0x3d, 0xa0, 0xed, 0xde, 0x3d, 0x34, 0x36, 0x44, 0xbd,
  0xa2, 0x7f, 0x22, 0x3e, 0x8d, 0xca, 0x9d, 0x3e, 0x1e, 0x4f, 0x87, 0x3e,
  0x1e, 0xd2, 0x1b, 0xbe, 0x22, 0xd9, 0x13, 0x3d, 0x01, 0x6d, 0xb3, 0x3e,
  0x0d, 0x30, 0x61, 0x3e, 0x7f, 0xea, 0x66, 0x3e, 0x8e, 0x36, 0xa0, 0xbd,
  0x9d, 0x0f, 0x4b, 0x3e, 0x19, 0x1c, 0xda, 0xbd, 0xb6, 0x25, 0xe3, 0xba,
  0x12, 0x87, 0xcc, 0x3e, 0x87, 0x3d, 0x86, 0x3e, 0x87, 0x52, 0xd4, 0xbd,
  0xd6, 0x8d, 0x71, 0x3e, 0xf6, 0xaa, 0x50, 0xbd, 0x8f, 0x9b, 0xad, 0x3e,
  0x79, 0xc1, 0x91, 0x3e, 0x43, 0x6e, 0xaf, 0x3d, 0x8d, 0x21, 0xfe, 0xbd,
  0x4c, 0x0d, 0x3e, 0x3e, 0xc2, 0xa9, 0x79, 0x3e, 0x61, 0x1f, 0x8d, 0xbd,
  0x84, 0x5a, 0xb5, 0x3e, 0xe6, 0x37, 0xd4, 0x3d, 0x48, 0xe3, 0x3d, 0xbd,
  0xb3, 0x23, 0x0d, 0xbe, 0xaf, 0xf8, 0x84, 0x3e, 0x9d, 0x96, 0x00, 0xbe,
  0x4a, 0x27, 0x5d, 0x3e, 0x16, 0x3f, 0x86, 0xbd, 0x83, 0x69, 0x2f, 0xbe,
  0x98, 0x41, 0x63, 0xbe, 0x8a, 0x68, 0x52, 0x3e, 0x59, 0xb4, 0x09, 0x3d,
  0x76, 0x09, 0x0f, 0x3e, 0x88, 0x88, 0x55, 0x3e, 0x04, 0x46, 0x31, 0x3e,
  0x4f, 0xff, 0xad, 0xbc, 0x4c, 0x58, 0x02, 0xbe, 0x6f, 0x0b, 0xc7, 0x3d,
  0x24, 0x51, 0x99, 0x3e, 0x2b, 0x9a, 0xea, 0xbd, 0x67, 0x6e, 0x5b, 0x3e,
  0x9c, 0x72, 0xb4, 0x3e, 0x56, 0xc7, 0x5d, 0x3e, 0x6d, 0xb9, 0xa1, 0x3d,
  0x9e, 0x16, 0x20, 0x3e, 0xc2, 0x03, 0xbe, 0xbd, 0x38, 0x22, 0xbe, 0xbe,
  0x5a, 0xc3, 0x8b, 0x3d, 0xcb, 0xe3, 0x57, 0xbe, 0x8c, 0x30, 0x4a, 0xbd,
  0x6f, 0x4b, 0xd2, 0x3c, 0xd8, 0x67, 0xc6, 0x3d, 0x0e, 0x0b, 0x70, 0x3e,
  0xe9, 0xf4, 0x64, 0x3e, 0x88, 0x5c, 0x9e, 0xbe, 0x49, 0xac, 0xf3, 0xbe,
  0x9e, 0x64, 0x09, 0x3e, 0x65, 0x78, 0x62, 0xbe, 0x81, 0xaa, 0xe5, 0x3e,
  0x99, 0xfb, 0x82, 0x3d, 0x5c, 0x1a, 0xbb, 0xbe, 0xe0, 0xde, 0x55, 0xbe,
  0xb8, 0x4d, 0xc2, 0xbe, 0x3e, 0x2e, 0x06, 0x3e, 0x0b, 0x8c, 0x1b, 0xbe,
  0x66, 0x7e, 0x7c, 0x3e, 0xf2, 0x95, 0x12, 0xbd, 0xb7, 0x8b, 0x75, 0x3e,
  0x7c, 0xba, 0x5f, 0xbd, 0x5f, 0xcc, 0x37, 0x3e, 0x5e, 0xc0, 0x39, 0xbe,
  0x05, 0x61, 0x0e, 0xbd, 0x22, 0x75, 0x87, 0x3d, 0xa0, 0x85, 0x99, 0xbd,
  0xf4, 0x46, 0x02, 0x3e, 0x43, 0x0d, 0x80, 0x3d, 0x56, 0x2d, 0x85, 0xbd,
  0x4f, 0x58, 0x17, 0xbe, 0x4a, 0x55, 0xc5, 0xbd, 0x41, 0x46, 0x08, 0xbe,
  0xe5, 0x83, 0x65, 0x3e, 0xda, 0xeb, 0x45, 0xbe, 0x8c, 0x62, 0x82, 0xbe,
  0x86, 0xf3, 0x26, 0xbd, 0x6a, 0x2d, 0x09, 0xbe, 0xb3, 0x0d, 0x26, 0xbc,
  0xd7, 0x42, 0x3d, 0x3e, 0x35, 0x03, 0x59, 0x3e, 0x7a, 0x5b, 0x8c, 0xbd,
  0xa2, 0xf5, 0xba, 0xbd, 0x75, 0xba, 0x9d, 0x3e, 0x81, 0x85, 0xbf, 0x3d,
  0x21, 0x12, 0x89, 0xbe, 0xa7, 0xce, 0xc8, 0xbd, 0x05, 0x6a, 0x21, 0x3e,
  0x10, 0x25, 0x19, 0xbe, 0x38, 0xfc, 0xc1, 0x3d, 0xfc, 0xe3, 0x08, 0xbe,
  0x08, 0xe7, 0x82, 0xbe, 0xe6, 0x5f, 0xd6, 0x3c, 0x36, 0xee, 0xc6, 0x3d,
  0x6d, 0x89, 0x77, 0x3e, 0xf7, 0x04, 0xc4, 0xbe, 0xda, 0x92, 0x08, 0x3e,
  0x41, 0x25, 0x02, 0xbe, 0x67, 0x24, 0xf1, 0x3d, 0x5c, 0x52, 0x01, 0x3e,
  0x1a, 0x93, 0xf5, 0xbe, 0x18, 0x73, 0x10, 0xbe, 0x26, 0x33, 0x46, 0xbd,
  0xcb, 0x0d, 0xcb, 0x3d, 0x05, 0x82, 0x7a, 0x3e, 0xa6, 0x05, 0xe3, 0x3d,
  0x4f, 0x7a, 0x02, 0xbd, 0xda, 0x23, 0x84, 0x3e, 0x47, 0x63, 0x30, 0x3e,
  0x5f, 0x63, 0x2c, 0x3e, 0x34, 0xaa, 0x40, 0xbd, 0x1a, 0x4c, 0x5f, 0x3e,
  0xfd, 0x48, 0x3e, 0xbd, 0xd7, 0xf6, 0x83, 0xbe, 0x28, 0xc8, 0x86, 0x3e,
  0xa7, 0x87, 0x98, 0xbe, 0x15, 0xc1, 0x60, 0x3d, 0x62, 0x21, 0x5f, 0x3e,
  0x74, 0xbf, 0xed, 0x3d, 0x96, 0x05, 0xa6, 0x3e, 0x1a, 0x6a, 0xbc, 0xbc,
  0x4b, 0xdb, 0x6c, 0x3e, 0x42, 0x65, 0xe7, 0x3c, 0xd0, 0x29, 0x09, 0x3e,
  0xc9, 0xed, 0x77, 0xbd, 0x45, 0x36, 0x25, 0x3d, 0xde, 0xc0, 0x42, 0xbd,
  0xc1, 0xf2, 0x7f, 0x3e, 0x19, 0x1a, 0x22, 0x3e, 0x87, 0x00, 0x10, 0x3e,
  0xa4, 0xb7, 0x86, 0x3d, 0xbe, 0x8d, 0xab, 0x3b, 0xf3, 0x30, 0x44, 0x3e,
  0x1a, 0xa0, 0xbc, 0x3d, 0x96, 0x1b, 0xe8, 0x3c, 0x66, 0xf4, 0x38, 0x3e,
  0x4d, 0x1d, 0x6c, 0xbe, 0x7a, 0x73, 0xfa, 0xbd, 0x73, 0x9c, 0x89, 0x3e,
  0x47, 0x6f, 0x2a, 0x3d, 0x91, 0xf0, 0x67, 0xbd, 0xe2, 0x29, 0x41, 0x3e,
  0x23, 0x69, 0xc0, 0x3e, 0xee, 0x88, 0x24, 0x3e, 0x16, 0x0b, 0x33, 0x3e,
  0xdf, 0x49, 0x3c, 0x3e, 0x2a, 0x0c, 0x23, 0xbc, 0xb3, 0x6f, 0xa4, 0x3d,
  0x26, 0xc2, 0x39, 0x3e, 0xce, 0x27, 0xb5, 0xbd, 0xc3, 0xf7, 0x4e, 0x3e,
  0x02, 0xc0, 0x56, 0x3c, 0xf4, 0x5d, 0x44, 0x3d, 0x19, 0x14, 0x7b, 0x3e,
  0xa7, 0x1a, 0xf7, 0x3d, 0xd2, 0x9e, 0x8c, 0xbd, 0x76, 0x85, 0x25, 0xbd,
  0x16, 0xcb, 0xb8, 0xbd, 0x7b, 0x45, 0x8a, 0x3e, 0x11, 0x4f, 0x2a, 0x3e,
  0xd4, 0x48, 0xb8, 0x3b, 0x70, 0x35, 0x3c, 0x3e, 0x3d, 0x9b, 0x77, 0x3e,
  0x41, 0xb7, 0x2b, 0x3d, 0x0f, 0x75, 0x13, 0x3d, 0x81, 0x54, 0x58, 0x3e,
  0x06, 0xf2, 0xce, 0x3d, 0xef, 0x4e, 0x53, 0xbd, 0x71, 0xc9, 0x85, 0x3e,
  0x57, 0xf2, 0x08, 0xbd, 0xcd, 0x33, 0x11, 0xbd, 0xa7, 0x16, 0x3f, 0xbe,
  0x40, 0x50, 0xa1, 0x3e, 0xdb, 0x19, 0xcd, 0x3d, 0xf4, 0xf4, 0xca, 0xbd,
  0xd2, 0x15, 0x68, 0xbe, 0x39, 0xae, 0xb2, 0xbd, 0x30, 0xc1, 0xd4, 0x3c,
  0xce, 0x8c, 0x61, 0x3e, 0x1c, 0x4d, 0xf9, 0x3e, 0xd1, 0x4d, 0xd5, 0x3d,
  0x72, 0x1b, 0x8c, 0xbe, 0xa4, 0x39, 0x99, 0x3c, 0x8c, 0x66, 0x88, 0xbe,
  0xd3, 0x9b, 0x6e, 0x3e, 0xa2, 0xfa, 0x7e, 0xbe, 0x0f, 0x70, 0x88, 0x3d,
  0x42, 0xb8, 0x1f, 0x3d, 0x51, 0x53, 0x34, 0x3e, 0xeb, 0xfc, 0x3a, 0x3e,
  0x72, 0xdf, 0x3f, 0x3e, 0xba, 0x57, 0x3b, 0x3d, 0xa7, 0x73, 0x77, 0xbe,
  0x31, 0xb8, 0x8c, 0xbe, 0xef, 0x1b, 0x4d, 0x3e, 0x1d, 0xd5, 0xef, 0x3c,
  0xb1, 0xcc, 0xe4, 0x3c, 0xcf, 0x6e, 0x1c, 0xbe, 0x5a, 0xe6, 0x20, 0xbe,
  0x3f, 0xcc, 0x7d, 0x3d, 0x14, 0x0b, 0xd0, 0xbd, 0x9a, 0x84, 0x60, 0x3e,
  0xdc, 0xa3, 0x11, 0xbe, 0xc4, 0x2b, 0x27, 0xbd, 0xfd, 0x32, 0x18, 0xbe,
  0x61, 0xe6, 0x57, 0x3e, 0x32, 0x78, 0xd2, 0xbd, 0xb3, 0xa8, 0xbb, 0x3d,
  0x3d, 0x3f, 0x4e, 0xbe, 0x7d, 0x44, 0x43, 0xbe, 0xd4, 0x5a, 0xda, 0x3d,
  0xd7, 0x10, 0xd9, 0xbd, 0xa1, 0xce, 0x9b, 0xbe, 0xc2, 0x6c, 0xb0, 0xbd,
  0x77, 0xa9, 0x71, 0x3e, 0x68, 0xcd, 0xc7, 0xbc, 0xf1, 0x32, 0xdb, 0x3d,
  0x34, 0x73, 0x44, 0x3e, 0xf4, 0xb5, 0xdc, 0xbc, 0xd8, 0xac, 0x01, 0x3e,
  0x4d, 0x4f, 0xd8, 0x3c, 0x8c, 0x85, 0x1d, 0xbe, 0x27, 0xf9, 0xfd, 0x3d,
  0x76, 0x46, 0xac, 0xbd, 0x53, 0xfa, 0xe0, 0x3d, 0xb1, 0xd6, 0x67, 0xbe,
  0x94, 0xc5, 0x10, 0xbe, 0xc2, 0xda, 0x04, 0xbe, 0xf0, 0x84, 0x15, 0xbe,
  0xbb, 0x15, 0x89, 0x3e, 0xaa, 0xcb, 0x93, 0xbd, 0x29, 0x9a, 0x32, 0xbe,
  0xeb, 0x02, 0xe9, 0x3d, 0xb1, 0xbd, 0x44, 0xbe, 0xf5, 0x5d, 0x38, 0x3e,
  0xd1, 0x21, 0x27, 0xbc, 0x1b, 0x12, 0x32, 0xbe, 0xac, 0x4c, 0xc8, 0x3d,
  0xa3, 0x6c, 0xa4, 0x3d, 0xe5, 0x1e, 0x65, 0xbe, 0x63, 0x26, 0xfe, 0x3d,
  0x17, 0xe2, 0x67, 0x3e, 0xc9, 0x77, 0x9d, 0xbe, 0xa6, 0xf5, 0x9a, 0xbe,
  0x32, 0x8a, 0x23, 0x3e, 0x1c, 0xa8, 0x5c, 0x3e, 0x44, 0xc9, 0xd6, 0x3c,
  0xe4, 0x4b, 0x23, 0x3e, 0x98, 0xb3, 0x88, 0x3d, 0x0f, 0xee, 0x0f, 0xbe,
  0x67, 0x4c, 0x10, 0xbe, 0xb5, 0xa2, 0x90, 0x3c, 0x70, 0x40, 0x1e, 0x3e,
  0x85, 0xbe, 0x29, 0xbe, 0xa2, 0x1b, 0x57, 0x3d, 0xd1, 0x92, 0x26, 0x3e,
  0x1c, 0x8f, 0xd8, 0xbd, 0x08, 0xfe, 0x1f, 0x3e, 0xd7, 0x1f, 0x43, 0xbd,
  0x7d, 0xe6, 0xc1, 0x3d, 0x98, 0x11, 0x1c, 0xbe, 0xca, 0x9d, 0x67, 0xbe,
  0x7a, 0x5c, 0x6b, 0x3d, 0x2d, 0x1d, 0x27, 0x3e, 0xe4, 0x02, 0x2b, 0xbe,
  0x6d, 0xc0, 0xd1, 0xbc, 0x1b, 0x86, 0x2a, 0x3d, 0xed, 0x60, 0x14, 0x3e,
  0x1b, 0x92, 0x3b, 0xbe, 0xc3, 0x50, 0x35, 0x3b, 0x08, 0x9d, 0x7d, 0xbe,
  0x2c, 0x6a, 0x6e, 0xbe, 0xab, 0x71, 0x64, 0xbe, 0x48, 0x47, 0xc4, 0xbd,
  0xe6, 0x39, 0x71, 0xbd, 0xb7, 0x81, 0x87, 0xbe, 0xc7, 0x31, 0x06, 0x3e,
  0x9e, 0x9d, 0x76, 0xbe, 0xce, 0x8e, 0x0c, 0xbe, 0xc1, 0x41, 0x19, 0x3e,
  0xa5, 0x9c, 0x4b, 0xbe, 0x77, 0x6e, 0x3d, 0x3e, 0xfd, 0xea, 0x12, 0x3e,
  0x9d, 0x77, 0x94, 0xbe, 0x21, 0xe8, 0x14, 0xbd, 0xbb, 0x10, 0x4a, 0xbe,
  0xa5, 0x2b, 0x73, 0xbe, 0xdc, 0xfb, 0x90, 0xbe, 0xab, 0xbf, 0xdc, 0x3d,
  0x35, 0x3d, 0xb1, 0xbd, 0xc1, 0xb1, 0xa1, 0xbc, 0xc0, 0xd2, 0xb5, 0xbc,
  0xc9, 0x6e, 0xa2, 0x3d, 0xee, 0x0f, 0xe5, 0xbd, 0x8b, 0xea, 0x81, 0x3e,
  0x1c, 0xe7, 0x0e, 0x3e, 0x57, 0x6e, 0xa3, 0x3d, 0x1a, 0x93, 0x9d, 0x3e,
  0xea, 0xfc, 0xbe, 0x3d, 0x93, 0x47, 0x8e, 0x3e, 0xac, 0xa4, 0xfc, 0x3d,
  0xd8, 0x94, 0xac, 0x3c, 0x09, 0xce, 0x49, 0xbd, 0xb4, 0x02, 0x07, 0x3e,
  0x14, 0x56, 0x7f, 0x3e, 0xdb, 0x07, 0x96, 0xbe, 0x96, 0x67, 0xf6, 0x3d,
  0xe8, 0x8e, 0x9a, 0xbe, 0xb1, 0x0b, 0x7c, 0x3e, 0xa8, 0xf0, 0x5c, 0x3e,
  0xbc, 0x5f, 0xbf, 0x3e, 0x3d, 0xeb, 0x11, 0x3e, 0xb9, 0xf9, 0x76, 0x3e,
  0x86, 0x2e, 0x0f, 0xbc, 0x43, 0x39, 0xa1, 0x3e, 0xec, 0x57, 0xd7, 0xbd,
  0x39, 0xfc, 0x46, 0x3e, 0x13, 0xa0, 0x43, 0x3e, 0xd1, 0x27, 0xf9, 0x3c,
  0xa9, 0x20, 0x32, 0xbd, 0x3e, 0x32, 0x32, 0x3e, 0x7d, 0x8b, 0x54, 0x3e,
  0x24, 0xe9, 0x22, 0xbd, 0x51, 0x9b, 0xab, 0x3e, 0x0e, 0x31, 0xe3, 0xbc,
  0x60, 0xdc, 0x31, 0x3d, 0x53, 0xe7, 0xa9, 0x3e, 0x4b, 0x27, 0xcf, 0x3d,
  0xa6, 0xaf, 0x57, 0xbe, 0xdb, 0x8c, 0x37, 0xbe, 0x2b, 0x73, 0x84, 0x3e,
  0xaf, 0xd4, 0x65, 0x3e, 0x0b, 0x3d, 0x76, 0xbe, 0x25, 0x47, 0xb4, 0x3e,
  0x05, 0x5d, 0x27, 0xbd, 0xb3, 0x0d, 0xbb, 0x3e, 0x04, 0x3d, 0xeb, 0xbd,
  0xb7, 0x49, 0x60, 0x3c, 0xa3, 0x7c, 0x95, 0x3e, 0xf4, 0x0e, 0xdf, 0xbc,
  0x3e, 0x6e, 0x67, 0x3e, 0xf6, 0xd8, 0x1e, 0x3d, 0xe0, 0x7d, 0xe2, 0x3c,
  0xf2, 0xcb, 0x8e, 0x3e, 0x88, 0xb6, 0x0c, 0x3c, 0x91, 0x89, 0xbb, 0x3d,
  0xaf, 0x18, 0x89, 0xbd, 0x37, 0xd5, 0x7e, 0x3e, 0x93, 0x01, 0x4e, 0xbd,
  0xda, 0xff, 0x45, 0x3e, 0x1c, 0xf2, 0x02, 0xbe, 0xac, 0x58, 0xfb, 0x3d,
  0x6d, 0x0d, 0x03, 0xbe, 0x30, 0x05, 0xc1, 0x3e, 0x3a, 0x3f, 0x88, 0x3e,
  0x18, 0x93, 0x50, 0x3e, 0x07, 0xa0, 0x30, 0x3e, 0xbf, 0x19, 0x80, 0x3e,
  0x90, 0x21, 0xde, 0xbd, 0x00, 0x43, 0x28, 0xbe, 0xf8, 0x1c, 0x27, 0xbe,
  0x70, 0x8b, 0x79, 0xbd, 0x40, 0xee, 0x4e, 0x3d, 0x40, 0x11, 0xb6, 0x3d,
  0x80, 0x71, 0xb0, 0xbb, 0x60, 0xcc, 0x81, 0x3c, 0x14, 0x5c, 0x2c, 0xbe,
  0x20, 0xeb, 0xad, 0x3c, 0xe4, 0xa8, 0x61, 0xbe, 0x50, 0xa2, 0xae, 0xbd,
  0x18, 0xf5, 0x4b, 0xbe, 0x14, 0xbc, 0x47, 0x3e, 0x00, 0x1e, 0x21, 0xbd,
  0x78, 0xc6, 0x68, 0xbe, 0x60, 0x8f, 0x8e, 0x3c, 0x20, 0x17, 0x11, 0x3e,
  0xa0, 0xd9, 0x43, 0xbd, 0x40, 0x8c, 0x5a, 0xbe, 0x38, 0x03, 0xab, 0xbd,
  0x80, 0x31, 0xb5, 0x3d, 0xf4, 0xe2, 0x36, 0xbe, 0x6c, 0xc3, 0x03, 0xbe,
  0x18, 0x43, 0x2c, 0xbe, 0xc8, 0x6c, 0x45, 0xbe, 0x40, 0xee, 0x52, 0xbd,
  0x8c, 0x64, 0x51, 0xbe, 0x88, 0x5d, 0x33, 0xbe, 0x74, 0x58, 0x78, 0x3e,
  0xb8, 0x4e, 0xe4, 0xbd, 0xe8, 0xaa, 0x9e, 0xbd, 0xc0, 0xb5, 0xf5, 0xbc,
  0xc0, 0xf9, 0x7c, 0xbd, 0x40, 0x10, 0x43, 0x3d, 0xf0, 0x8a, 0xad, 0x3d,
  0xf0, 0xc0, 0x7b, 0xbe, 0x70, 0x12, 0x28, 0x3d, 0x4c, 0xed, 0x65, 0xbe,
  0x28, 0xa6, 0xe1, 0xbd, 0x28, 0x3b, 0xe0, 0xbd, 0xc8, 0xfd, 0xb2, 0xbd,
  0x14, 0x82, 0x0c, 0xbe, 0x20, 0x48, 0x6a, 0xbd, 0x0c, 0x80, 0x15, 0x3e,
  0xf0, 0x09, 0x89, 0xbd, 0x88, 0xae, 0x37, 0x3e, 0xcc, 0x91, 0x25, 0x3e,
  0x28, 0x60, 0x1c, 0xbe, 0x6c, 0xd0, 0x3d, 0xbe, 0xf4, 0x09, 0x65, 0xbe,
  0xb8, 0xe6, 0x6c, 0x3e, 0xf8, 0x5a, 0xb5, 0x3d, 0xc4, 0xc1, 0x50, 0x3e,
  0x68, 0xa4, 0x79, 0xbe, 0x60, 0xb5, 0x09, 0x3e, 0xf0, 0x79, 0x8a, 0x3d,
  0x80, 0xda, 0xe3, 0xbb, 0x60, 0x87, 0x2f, 0x3d, 0xdc, 0xa5, 0x6c, 0xbe,
  0x2c, 0xcd, 0x60, 0x3e, 0x94, 0x68, 0x16, 0xbe, 0x20, 0x1f, 0x7b, 0x3d,
  0x80, 0x5c, 0x73, 0x3d, 0x93, 0x72, 0xc3, 0x3c, 0xf3, 0xde, 0xb3, 0x3e,
  0xdd, 0xf8, 0x2e, 0xbe, 0xf4, 0x6f, 0x29, 0x3e, 0x50, 0x20, 0x89, 0x3e,
  0x50, 0x51, 0x2f, 0xbd, 0x0d, 0x65, 0x99, 0x3d, 0x6b, 0xf6, 0x16, 0xbd,
  0xc8, 0x58, 0x20, 0xbd, 0x15, 0xae, 0x45, 0x3d, 0xc2, 0xea, 0x67, 0x3d,
  0xac, 0x5f, 0x57, 0xbe, 0x5d, 0x35, 0x75, 0x3e, 0x19, 0xc5, 0xa8, 0xbe,
  0xd5, 0xb4, 0xee, 0x3d, 0xe6, 0xbf, 0x12, 0xbd, 0xe2, 0x5f, 0x3f, 0x3e,
  0xe0, 0x81, 0xa9, 0x3e, 0xa1, 0xa9, 0x94, 0x3e, 0x8d, 0xfa, 0x59, 0x3c,
  0x7d, 0x23, 0x29, 0x3e, 0xfd, 0x13, 0x6a, 0x3d, 0xb5, 0xf4, 0x8e, 0x3e,
  0x03, 0x09, 0xb0, 0x3e, 0xf0, 0x99, 0xfc, 0x3d, 0x5e, 0xa6, 0x38, 0x3d,
  0xe0, 0x9a, 0x01, 0x3e, 0x4a, 0x23, 0x2b, 0x3e, 0xa4, 0x70, 0x91, 0x3e,
  0x1c, 0x06, 0xb1, 0x3d, 0x41, 0xfb, 0xa8, 0xbd, 0x76, 0x9c, 0x93, 0x3e,
  0x5a, 0x37, 0xa4, 0x3d, 0x9f, 0x80, 0x3a, 0xbd, 0x56, 0xd4, 0x23, 0xbe,
  0xfb, 0x4a, 0x01, 0xbe, 0xd5, 0xff, 0xae, 0x3e, 0xce, 0xe8, 0xa7, 0x3e,
  0x97, 0x2d, 0x2c, 0xbe, 0xa0, 0x9c, 0x70, 0x3c, 0x0c, 0x02, 0xbb, 0x3e,
  0x2b, 0x7c, 0xb7, 0x3e, 0x84, 0xc4, 0xe1, 0x3d, 0xfd, 0xfa, 0x2e, 0x3e,
  0xa7, 0x54, 0xf8, 0xbc, 0x03, 0x2e, 0x15, 0x3d, 0x5f, 0xa8, 0xb0, 0xbb,
  0x7b, 0x5f, 0x3c, 0x3e, 0x4f, 0x49, 0xdb, 0xbd, 0x43, 0x97, 0x9b, 0x3e,
  0x63, 0x12, 0xac, 0xbd, 0x38, 0x46, 0xf4, 0xbd, 0x14, 0x68, 0xb1, 0xbd,
  0x8d, 0xf6, 0x41, 0x3e, 0x49, 0xa2, 0x8a, 0x3d, 0x95, 0xe6, 0x24, 0x3e,
  0xc2, 0x5f, 0xb4, 0x3d, 0x35, 0x5f, 0x38, 0x3e, 0x2a, 0xda, 0x14, 0xbe,
  0x72, 0xc6, 0x9c, 0x3e, 0xd3, 0x97, 0xba, 0x3e, 0x8f, 0x8c, 0x3e, 0xbd,
  0x00, 0xf4, 0x6c, 0xbd, 0x8b, 0x75, 0x17, 0x3d, 0xcc, 0xec, 0x80, 0xbe,
  0x90, 0x2b, 0x1a, 0xbd, 0x12, 0x80, 0x24, 0x3e, 0x00, 0xee, 0xd7, 0xbd,
  0xed, 0xdb, 0x9a, 0x3d, 0x52, 0xfe, 0x94, 0xbc, 0x98, 0xad, 0x2b, 0xbe,
  0x20, 0x3f, 0xc2, 0x3d, 0x7c, 0xae, 0x18, 0x3e, 0x00, 0xc5, 0x7c, 0xbc,
  0x28, 0x4f, 0xe0, 0xbd, 0x00, 0x94, 0x19, 0xba, 0x3d, 0x8f, 0xb0, 0x3d,
  0xf5, 0x47, 0x61, 0xbe, 0x12, 0xd1, 0x4f, 0x3c, 0x68, 0x17, 0xa3, 0x3d,
  0x40, 0xfd, 0xef, 0x3d, 0x9e, 0x52, 0x32, 0xbe, 0x86, 0xfb, 0xfd, 0xbc,
  0xfe, 0x79, 0x22, 0x3d, 0x97, 0xdd, 0x75, 0xbe, 0xcc, 0xc2, 0xc6, 0xbd,
  0x01, 0x12, 0x40, 0xbd, 0xa1, 0x79, 0xdd, 0xbd, 0x41, 0x71, 0x22, 0xbe,
  0x10, 0x57, 0x6b, 0xbe, 0x4b, 0x5c, 0x37, 0x3e, 0xe8, 0x3c, 0x7c, 0x3d,
  0xa0, 0x6b, 0x00, 0x3e, 0x39, 0x57, 0x52, 0xbe, 0x28, 0xaa, 0xf6, 0xbd,
  0xc4, 0xdb, 0x71, 0xbe, 0xa4, 0x6f, 0x84, 0xbe, 0x33, 0x40, 0xf3, 0xbd,
  0x97, 0x41, 0x61, 0x3e, 0x4d, 0x59, 0x27, 0xbe, 0x78, 0x6d, 0x76, 0xbe,
  0xf8, 0x26, 0x9b, 0xbd, 0x72, 0x76, 0x2e, 0x3d, 0x53, 0x41, 0x52, 0xbe,
  0xfe, 0x41, 0x1e, 0x3d, 0xf5, 0xe4, 0x4d, 0x3d, 0xe0, 0xa1, 0xd3, 0xbd,
  0x18, 0x19, 0xa2, 0xbd, 0x22, 0x47, 0xf7, 0x3d, 0x3f, 0x5b, 0x71, 0xbe,
  0x9a, 0x8d, 0x65, 0xbe, 0xda, 0xfc, 0xad, 0xbd, 0x23, 0x8e, 0x5d, 0xbb,
  0x14, 0x94, 0x0e, 0xbe, 0x50, 0x44, 0x6a, 0xbd, 0xa0, 0x86, 0x6d, 0xbd,
  0x68, 0x92, 0x20, 0x3e, 0x51, 0x4e, 0xb5, 0xbd, 0x62, 0x44, 0x47, 0xbd,
  0xa3, 0x87, 0x32, 0x3e, 0x80, 0x25, 0xb2, 0x3d, 0xf3, 0xd0, 0x9f, 0xbd,
  0x3e, 0x9d, 0xee, 0x3b, 0x0c, 0xec, 0x44, 0x3e, 0x44, 0xb0, 0x57, 0xbe,
  0xae, 0x78, 0xbf, 0xbc, 0x98, 0x67, 0x62, 0x3e, 0x10, 0x42, 0x11, 0x3d,
  0x46, 0x8b, 0x3e, 0x3e, 0x41, 0x5a, 0x26, 0x3e, 0xae, 0x4d, 0x62, 0x3e,
  0x4a, 0x2d, 0xc7, 0x3d, 0x5b, 0xa3, 0x4f, 0xbe, 0x4b, 0x8c, 0x11, 0x3e,
  0x11, 0xbb, 0xb7, 0x3a, 0x1a, 0x79, 0x91, 0xbc, 0x00, 0x8f, 0x19, 0xbe,
  0x14, 0x3d, 0x31, 0xbe, 0xac, 0xa4, 0x62, 0x3e, 0xb2, 0x89, 0x54, 0x3b,
  0xe8, 0xa4, 0x16, 0xbe, 0x0b, 0x4d, 0x82, 0xbe, 0x9d, 0xf0, 0x5d, 0xbe,
  0x8b, 0x3c, 0xf1, 0xbc, 0xb6, 0x59, 0x12, 0x3e, 0x75, 0x10, 0x91, 0x3e,
  0x9d, 0x95, 0x46, 0xbe, 0xd8, 0x2e, 0xc7, 0x3d, 0x44, 0x2b, 0x86, 0x3e,
  0x4e, 0x7e, 0xac, 0xbc, 0x73, 0x33, 0x6a, 0xbe, 0x9b, 0x78, 0x1b, 0xbe,
  0x5e, 0x26, 0x89, 0x3c, 0x2b, 0xf1, 0x0f, 0xbf, 0x90, 0x87, 0x81, 0xbd,
  0x24, 0x27, 0xbb, 0x3b, 0xa4, 0x62, 0x7a, 0xbd, 0x6c, 0x98, 0x4f, 0x3e,
  0x95, 0xef, 0xd1, 0x3d, 0x4a, 0xee, 0x3b, 0xbe, 0xd7, 0xe7, 0x48, 0xbd,
  0x47, 0x4f, 0x3c, 0x3e, 0x5d, 0x23, 0x32, 0xbe, 0x94, 0x51, 0x13, 0xbf,
  0xce, 0x8b, 0x19, 0xbe, 0xad, 0xf4, 0xd0, 0xba, 0x5c, 0xc0, 0x76, 0xbe,
  0x2d, 0x7d, 0xd1, 0xbd, 0x79, 0xce, 0xfd, 0xbb, 0x67, 0x77, 0xc2, 0xbd,
  0xbf, 0x4e, 0x5e, 0xbe, 0x0e, 0xfd, 0x27, 0x3e, 0xce, 0x89, 0x9e, 0x3e,
  0xc9, 0xdc, 0x92, 0x3d, 0xe9, 0x54, 0x75, 0x3e, 0x21, 0x3c, 0x58, 0xbe,
  0x2f, 0x5a, 0x66, 0xbd, 0xc3, 0x69, 0x15, 0x3e, 0xab, 0x28, 0x0b, 0xbe,
  0xd0, 0x92, 0x89, 0x3e, 0xbe, 0xbc, 0x7b, 0xbe, 0xd8, 0x03, 0x49, 0xbc,
  0x57, 0x03, 0x16, 0xbd, 0xe5, 0x29, 0xe0, 0x3d, 0x32, 0xe2, 0xca, 0x3e,
  0xeb, 0xb9, 0x83, 0xbe, 0x1a, 0x29, 0x60, 0xbe, 0xcf, 0xe1, 0x72, 0x3e,
  0xd5, 0x05, 0x05, 0x3f, 0xfd, 0x39, 0xdf, 0xbd, 0xc0, 0x07, 0x22, 0x3e,
  0xa8, 0xe6, 0x02, 0x3e, 0x8c, 0x63, 0xd0, 0xbc, 0xf4, 0x01, 0x24, 0xbe,
  0x14, 0x01, 0x11, 0x3e, 0xad, 0x0e, 0xf5, 0xbc, 0xfb, 0x1f, 0x0f, 0xbe,
  0x67, 0x2a, 0x1c, 0x3e, 0xbe, 0x31, 0x94, 0xbe, 0x48, 0xe3, 0x89, 0xbb,
  0xd0, 0xd6, 0x52, 0x3e, 0x8c, 0x01, 0x3c, 0xbd, 0x20, 0x7b, 0x7c, 0x3e,
  0x7d, 0x26, 0xfc, 0xbe, 0xf1, 0xd9, 0xbb, 0x3d, 0x0d, 0xd0, 0xfd, 0xbe,
  0xd0, 0xc5, 0x26, 0x3c, 0xa7, 0xdf, 0x5f, 0x3e, 0xfb, 0x53, 0x9f, 0x3e,
  0xb6, 0x61, 0xdc, 0x3d, 0xa0, 0x7e, 0xf8, 0xbd, 0xdf, 0x85, 0xea, 0xbc,
  0xed, 0xa6, 0xec, 0x3c, 0x0d, 0x88, 0x86, 0x3c, 0x47, 0xf3, 0x7b, 0xbe,
  0xd1, 0x00, 0x3c, 0x3d, 0x24, 0x43, 0x76, 0xbe, 0x34, 0x35, 0xdf, 0xbe,
  0xd0, 0x90, 0xfb, 0xbd, 0x85, 0xf5, 0xa9, 0x3e, 0x57, 0xa0, 0x6c, 0x3e,
  0xf5, 0xc9, 0x8f, 0x3e, 0x63, 0xbf, 0x89, 0x3e, 0xae, 0xeb, 0x8e, 0x3e,
  0xcb, 0x41, 0xba, 0x3e, 0x22, 0x9f, 0xe5, 0xbd, 0x51, 0xf9, 0xd9, 0xbe,
  0xde, 0x10, 0xba, 0xbe, 0xdf, 0x6e, 0xfb, 0xbd, 0xab, 0xd3, 0xdf, 0x3d,
  0x15, 0xdc, 0x5c, 0xbe, 0x78, 0x55, 0x1b, 0x3e, 0x81, 0x79, 0x15, 0xbe,
  0x54, 0x2b, 0x08, 0x3e, 0xb6, 0x85, 0xe8, 0x3c, 0xd0, 0xa8, 0x1d, 0x3e,
  0xd1, 0xa5, 0x3d, 0xbe, 0xc8, 0x8a, 0x89, 0x3e, 0xe5, 0x7f, 0x8b, 0x3e,
  0xd8, 0x8a, 0xac, 0x3e, 0x1c, 0x57, 0xf0, 0xbe, 0x2a, 0x9d, 0x89, 0xbd,
  0x7b, 0xe0, 0x64, 0x3b, 0x6d, 0x85, 0x78, 0x3e, 0xea, 0xeb, 0x16, 0x3e,
  0x13, 0x7e, 0x31, 0x3c, 0xa9, 0xf2, 0x88, 0x3e, 0x27, 0x62, 0xa7, 0xbd,
  0xc2, 0xe1, 0xa3, 0x3e, 0x98, 0xc3, 0x05, 0x3e, 0x03, 0xf0, 0x3f, 0xbe,
  0x10, 0x7e, 0x8d, 0x3d, 0x1b, 0x78, 0x1e, 0x3e, 0xdc, 0x67, 0x97, 0xbd,
  0x1a, 0xb3, 0x99, 0x3e, 0x8c, 0x7a, 0x2a, 0x3e, 0x8a, 0xf9, 0xff, 0xff,
  0x04, 0x00, 0x00, 0x00, 0x00, 0x05, 0x00, 0x00, 0xd9, 0xd5, 0x5a, 0xbe,
  0xe3, 0xc1, 0xb1, 0x3e, 0x50, 0x70, 0x80, 0x3e, 0x2d, 0x75, 0xe2, 0xbe,
  0x1a, 0x53, 0x44, 0xbe, 0x83, 0x59, 0x31, 0x3e, 0x9e, 0x1d, 0x61, 0x3e,
  0x82, 0xef, 0x52, 0xbe, 0x75, 0xa8, 0xbe, 0xbe, 0x3f, 0xee, 0xc9, 0xbd,
  0x59, 0x49, 0x49, 0xbe, 0x08, 0x4b, 0x50, 0xbe, 0x94, 0xd8, 0x66, 0xbe,
  0x07, 0x5c, 0xf9, 0xbc, 0x0d, 0x35, 0x56, 0xbe, 0x36, 0x64, 0x89, 0x3d,
  0x91, 0x26, 0xac, 0x3e, 0x00, 0xc5, 0x7e, 0x3c, 0x02, 0xb3, 0xa4, 0xbe,
  0x64, 0x27, 0xb1, 0xbd, 0x47, 0x53, 0x3b, 0xbe, 0xfa, 0x28, 0x85, 0x3e,
  0x9b, 0x49, 0x5a, 0xbe, 0x98, 0xfc, 0x06, 0x3d, 0xd0, 0x7b, 0xfc, 0xbd,
  0x46, 0xb1, 0x6b, 0xbe, 0x77, 0x58, 0xc4, 0xbd, 0x9e, 0xa2, 0x6a, 0xbe,
  0xf8, 0x2d, 0xe1, 0x3d, 0x45, 0x45, 0x9a, 0xbe, 0x66, 0xab, 0x2b, 0x3e,
  0x51, 0x37, 0xad, 0xbe, 0xdc, 0x66, 0xc1, 0xbd, 0x00, 0x1b, 0x3b, 0x3e,
  0xc3, 0x16, 0xa7, 0xbe, 0x3c, 0x09, 0x88, 0xbe, 0x12, 0x33, 0x81, 0xbe,
  0x06, 0x52, 0xfd, 0xbd, 0x55, 0x29, 0x86, 0x38, 0x0a, 0x0b, 0x97, 0xbe,
  0xbf, 0x3c, 0xf1, 0x3c, 0xc5, 0x17, 0xed, 0xbd, 0x30, 0x52, 0xf9, 0xbd,
  0x06, 0x7b, 0x38, 0xbe, 0xa1, 0x1e, 0xdd, 0xbd, 0xdf, 0xae, 0x6f, 0x3e,
  0xf9, 0xe0, 0x57, 0x3d, 0xea, 0xa8, 0x17, 0x3e, 0x67, 0xcf, 0x15, 0x3e,
  0x84, 0xeb, 0x04, 0x3d, 0xc3, 0x3c, 0xf4, 0x3d, 0xe2, 0xa3, 0xbb, 0xbc,
  0xb3, 0xef, 0x4c, 0xbe, 0x4a, 0xef, 0xd5, 0xbe, 0x4e, 0x2e, 0x2b, 0x3e,
  0x4f, 0xb2, 0xfa, 0x3d, 0xe4, 0x6b, 0x74, 0x3e, 0x00, 0xf3, 0x33, 0x3c,
  0x24, 0xd0, 0xa5, 0x3d, 0x59, 0x51, 0xb2, 0x3e, 0x64, 0x24, 0x67, 0xbe,
  0xd8, 0x3d, 0x81, 0xbe, 0x5f, 0x59, 0x8d, 0xbe, 0x73, 0x48, 0x52, 0xbe,
  0x72, 0x17, 0x62, 0x3d, 0x9b, 0xb8, 0x10, 0x3e, 0xf3, 0x37, 0xe6, 0x3c,
  0x9a, 0x4f, 0xb7, 0xbd, 0xb8, 0x83, 0xe9, 0xbb, 0x49, 0xc5, 0x02, 0xbf,
  0x39, 0xc5, 0x06, 0x3e, 0x29, 0x3e, 0x0c, 0xbe, 0x80, 0x4b, 0x3b, 0xbc,
  0x95, 0xa9, 0x68, 0x3d, 0x37, 0x9d, 0x93, 0xbe, 0x7c, 0x45, 0x4f, 0xbd,
  0x89, 0x2d, 0x9f, 0xbe, 0xd8, 0xfc, 0x89, 0xbd, 0xe2, 0x91, 0x49, 0x3e,
  0x14, 0x08, 0x85, 0x3e, 0x52, 0x3a, 0xc0, 0x3d, 0x97, 0xef, 0x7a, 0x3e,
  0x8c, 0xd4, 0x02, 0xbe, 0x9d, 0x7e, 0x79, 0x3c, 0x98, 0xff, 0x7d, 0xbd,
  0xaf, 0xd6, 0x39, 0xbe, 0x43, 0x39, 0x0f, 0xbe, 0xdb, 0xfb, 0x0c, 0xbe,
  0xb3, 0x1b, 0xde, 0xbe, 0xe6, 0x90, 0x45, 0x3e, 0xd7, 0xe1, 0x95, 0xbe,
  0x02, 0xf8, 0xe6, 0xbd, 0xc6, 0x56, 0x8d, 0x3e, 0xf1, 0x78, 0x0e, 0x3d,
  0x0c, 0xac, 0x8f, 0xbe, 0xfb, 0x7d, 0x84, 0x3e, 0x36, 0x92, 0x31, 0xbd,
  0x98, 0x8e, 0x4c, 0x3e, 0xa1, 0xdb, 0xeb, 0xba, 0x29, 0xc9, 0xc4, 0x3d,
  0x25, 0xe4, 0x0e, 0x3e, 0xdc, 0x32, 0x3a, 0x3d, 0x1d, 0x35, 0x09, 0xbe,
  0x89, 0xcd, 0xe4, 0xbe, 0x00, 0x00, 0x06, 0xbe, 0x4e, 0x2f, 0x29, 0xbe,
  0xdf, 0xe4, 0xe1, 0xbd, 0x4c, 0x7e, 0x8b, 0xbd, 0x75, 0xca, 0x34, 0x3c,
  0x88, 0xa2, 0x4e, 0x3e, 0x7d, 0xc1, 0x06, 0xbe, 0xc3, 0x29, 0x94, 0xbe,
  0x1b, 0x54, 0x90, 0xbe, 0x5e, 0x1e, 0x51, 0x3e, 0xaf, 0xca, 0x06, 0xbe,
  0xe0, 0x04, 0x86, 0xbd, 0xba, 0x18, 0xbe, 0x3e, 0xe0, 0xd4, 0x30, 0x3d,
  0xfd, 0x41, 0xed, 0x3c, 0x5b, 0xde, 0x99, 0xbb, 0xba, 0x9d, 0x6d, 0x3e,
  0xeb, 0x3c, 0x96, 0xbe, 0x08, 0x48, 0x35, 0x3d, 0x7c, 0xa7, 0x9e, 0xbe,
  0xe5, 0x1e, 0x8e, 0xbe, 0x8c, 0x3f, 0x86, 0xbe, 0xbf, 0x22, 0xa0, 0xbd,
  0x3c, 0x39, 0x28, 0x3e, 0x60, 0x31, 0x81, 0xbe, 0xfd, 0x6a, 0x8c, 0x3e,
  0xe6, 0xff, 0x0b, 0xbe, 0x4f, 0x97, 0xbf, 0x3e, 0xee, 0xb9, 0x1f, 0xbe,
  0xfb, 0xd7, 0x62, 0x3d, 0xbe, 0x5a, 0xcb, 0x3d, 0x01, 0xe1, 0x2d, 0xbe,
  0x8b, 0x69, 0xa0, 0xbd, 0x00, 0xac, 0xd0, 0x3c, 0x49, 0x4c, 0xd3, 0xbe,
  0x06, 0xbb, 0x12, 0x3e, 0x52, 0x7d, 0xb9, 0xbc, 0x1b, 0x2c, 0x3f, 0x3d,
  0x80, 0x1a, 0x05, 0xbd, 0x09, 0xfe, 0x41, 0xbe, 0xf6, 0x9c, 0x4c, 0xbe,
  0xb1, 0xe1, 0x0e, 0xbe, 0x98, 0x1d, 0x52, 0xbe, 0xe7, 0x41, 0x83, 0xbe,
  0xe7, 0x4a, 0xde, 0xbe, 0x04, 0x8f, 0xf8, 0xbd, 0xeb, 0xfc, 0x82, 0x3e,
  0x10, 0xf7, 0x5b, 0xbe, 0x34, 0xb6, 0xfd, 0x3d, 0x59, 0x09, 0x02, 0xbf,
  0x68, 0x83, 0x7d, 0x3e, 0x09, 0xca, 0x54, 0x3e, 0xe6, 0x8e, 0x16, 0xbe,
  0x3c, 0x5a, 0x64, 0xbd, 0x7d, 0x12, 0xfd, 0xbe, 0xe8, 0x5f, 0x3b, 0x3e,
  0xf8, 0xd2, 0x2c, 0x3e, 0xbc, 0x44, 0x34, 0x3d, 0x28, 0x49, 0x0e, 0x3d,
  0xcb, 0x3c, 0x75, 0x3d, 0xc6, 0xea, 0x19, 0xbe, 0xcc, 0x2f, 0x4d, 0x3e,
  0xab, 0x04, 0x38, 0xbe, 0xb8, 0x25, 0x89, 0x3d, 0x27, 0x56, 0xe9, 0xbe,
  0x5f, 0x4d, 0x26, 0x3e, 0xeb, 0x8a, 0x2e, 0x3e, 0xd7, 0x40, 0x95, 0xbd,
  0x80, 0x8f, 0xc4, 0x3b, 0x2e, 0x88, 0xa6, 0xbc, 0x15, 0x0e, 0xdd, 0x3d,
  0x7b, 0x6c, 0xb0, 0xbe, 0xfb, 0x8d, 0x0e, 0x3e, 0xc2, 0x43, 0x3f, 0xbe,
  0x01, 0xcf, 0xf2, 0x3d, 0xd5, 0xb7, 0x39, 0x3e, 0xa8, 0x9d, 0x8d, 0x3e,
  0xa4, 0xbc, 0xa5, 0x3e, 0x4c, 0x7b, 0xcf, 0xbd, 0x9b, 0x6b, 0x82, 0x3d,
  0x82, 0xc0, 0xa8, 0x3d, 0x6a, 0x3e, 0x51, 0xbe, 0xd6, 0x9f, 0x90, 0xbe,
  0xe4, 0xe3, 0x3d, 0xbe, 0x90, 0xac, 0x0c, 0x3e, 0x63, 0xa4, 0x3c, 0x3e,
  0xfc, 0x57, 0x42, 0xbe, 0xcd, 0x30, 0xec, 0xbd, 0x52, 0x04, 0x02, 0xbe,
  0x56, 0x33, 0x63, 0x3d, 0x03, 0x15, 0x8d, 0xbe, 0x79, 0x20, 0xa8, 0x3d,
  0xcc, 0x7b, 0xe8, 0xbb, 0xad, 0x6e, 0x03, 0xbe, 0x58, 0xf8, 0xde, 0xbe,
  0x1e, 0x89, 0x84, 0xbe, 0xea, 0x99, 0x98, 0xbe, 0x10, 0x53, 0xe0, 0x3d,
  0x30, 0x84, 0x9d, 0xbc, 0xff, 0x5b, 0x55, 0xbe, 0x02, 0x90, 0xa1, 0x3d,
  0x30, 0x1a, 0x44, 0xbe, 0x52, 0x3f, 0x86, 0x3e, 0xc2, 0x19, 0x35, 0xbe,
  0x68, 0x16, 0x32, 0xbe, 0x9e, 0x1e, 0xca, 0xbd, 0x8e, 0x46, 0xc3, 0xbd,
  0xaf, 0x2f, 0x64, 0x3e, 0x38, 0x28, 0xaa, 0x3d, 0x3b, 0xae, 0x1a, 0x3e,
  0x3d, 0x83, 0xc5, 0x3d, 0x74, 0xe4, 0x06, 0x3e, 0x4a, 0xbc, 0x73, 0xbe,
  0xc0, 0x45, 0x61, 0x3e, 0xea, 0x7c, 0xe8, 0xbe, 0xcf, 0x65, 0x2c, 0x3e,
  0x58, 0x2a, 0x66, 0x3c, 0xd4, 0xd5, 0x91, 0x3e, 0x38, 0x50, 0x43, 0x3d,
  0x20, 0x0c, 0x0f, 0x3e, 0x69, 0x76, 0x87, 0xbd, 0x26, 0x2d, 0x88, 0x3c,
  0xf8, 0x64, 0x72, 0x3e, 0x80, 0x3a, 0xd3, 0x3c, 0xc2, 0xa1, 0xb8, 0xbc,
  0xac, 0xec, 0x8c, 0xbe, 0xc3, 0xf2, 0xcf, 0xbc, 0x63, 0x4a, 0xba, 0xbe,
  0x8c, 0x30, 0x8e, 0x3d, 0x86, 0xb0, 0xc1, 0xbe, 0x6a, 0x58, 0x6e, 0x3e,
  0x1b, 0x91, 0xb4, 0xbc, 0x6b, 0xcc, 0x42, 0xbe, 0xc8, 0xdc, 0x1a, 0xbd,
  0x22, 0xc0, 0x74, 0xbd, 0x13, 0x78, 0x1c, 0x3e, 0x53, 0x31, 0xdc, 0xbd,
  0x69, 0xa9, 0x0d, 0xbe, 0xc0, 0x07, 0xdb, 0xbc, 0x63, 0xf6, 0x0e, 0xbe,
  0x43, 0x17, 0x54, 0xbe, 0x6d, 0x6d, 0x01, 0xbe, 0xaf, 0x6d, 0x55, 0xbe,
  0x6c, 0x54, 0x71, 0x3e, 0xb6, 0x27, 0x93, 0x3d, 0x0c, 0x70, 0x80, 0x3d,
  0xb2, 0x3d, 0x6c, 0x3e, 0x73, 0x43, 0xf6, 0x3d, 0xbe, 0x57, 0x82, 0x3e,
  0x2d, 0x30, 0xe9, 0x3d, 0xea, 0xec, 0x5a, 0x3d, 0xa9, 0x8c, 0x14, 0xbd,
  0x57, 0xa5, 0x34, 0x3d, 0x0e, 0xa0, 0x15, 0x3e, 0x41, 0x79, 0xf8, 0xbd,
  0x94, 0x03, 0x19, 0xbe, 0x20, 0x66, 0xac, 0x3e, 0x40, 0x9b, 0x7e, 0x3e,
  0xe0, 0xd7, 0x8c, 0xbc, 0x35, 0x09, 0x86, 0xbe, 0x90, 0x06, 0xb3, 0x3d,
  0xd4, 0x79, 0x59, 0xbe, 0x7e, 0x2f, 0x39, 0x3e, 0xf5, 0x8a, 0x14, 0xbe,
  0xb1, 0xf9, 0xb4, 0xbe, 0xfa, 0x72, 0xf9, 0xbc, 0x25, 0x37, 0x07, 0xbd,
  0x50, 0x6e, 0x3f, 0xbe, 0x20, 0xe3, 0x3b, 0x3e, 0x44, 0x7d, 0x05, 0xbf,
  0xe1, 0xc0, 0x2d, 0x3b, 0x65, 0x41, 0x72, 0xbe, 0xe3, 0xaf, 0x8a, 0xbe,
  0x68, 0x40, 0x64, 0xbe, 0xba, 0x5c, 0x77, 0xbe, 0x31, 0xac, 0x2f, 0xbe,
  0x1e, 0xe2, 0x11, 0xbd, 0x8b, 0x39, 0x12, 0xbc, 0x2a, 0xec, 0x04, 0x3e,
  0x85, 0x99, 0xce, 0x3d, 0x62, 0x78, 0x3d, 0xbe, 0x3c, 0x72, 0x21, 0xbe,
  0xdf, 0xfa, 0x8f, 0x3e, 0xbb, 0x21, 0x11, 0xbe, 0xf4, 0x10, 0xc7, 0xbe,
  0xea, 0x19, 0x7d, 0x3e, 0xde, 0xa6, 0x8a, 0x3e, 0x85, 0xb1, 0x21, 0xbe,
  0xf2, 0xf3, 0x8d, 0xbd, 0x30, 0x96, 0xd5, 0x3d, 0xf9, 0x50, 0x7e, 0xbe,
  0xfc, 0x2f, 0xbe, 0xbd, 0x98, 0x36, 0x36, 0x3e, 0x6c, 0xbf, 0x6a, 0xbe,
  0x23, 0xeb, 0x98, 0xbc, 0xb3, 0x79, 0xa0, 0xbd, 0x5a, 0x17, 0xd7, 0xbc,
  0x44, 0x7b, 0x2a, 0x3e, 0xa2, 0xd2, 0x14, 0xbe, 0x22, 0xe0, 0x9c, 0xbe,
  0x19, 0x09, 0x21, 0xbe, 0x64, 0x40, 0x92, 0x3e, 0xec, 0xda, 0x80, 0x3d,
  0x26, 0xcb, 0x48, 0x3e, 0x4b, 0x7c, 0x16, 0x3e, 0xee, 0xaa, 0x0b, 0x3b,
  0x0c, 0x6b, 0x2a, 0xbe, 0xab, 0x95, 0x37, 0xbd, 0x2c, 0x0e, 0x7d, 0x3e,
  0x5a, 0x6b, 0x03, 0x3c, 0xca, 0x7d, 0x01, 0x3e, 0x44, 0x84, 0x92, 0x3e,
  0xba, 0xf3, 0x96, 0xbc, 0xf0, 0x01, 0xca, 0xbc, 0x0d, 0xdf, 0x11, 0xbe,
  0xb1, 0x73, 0x6c, 0x3d, 0x96, 0xfe, 0xff, 0xff, 0x04, 0x00, 0x00, 0x00,
  0x00, 0x01, 0x00, 0x00, 0x2e, 0x7f, 0x1c, 0x3e, 0xe5, 0x4b, 0x3e, 0x3e,
  0x6f, 0x63, 0x2d, 0x3e, 0xa3, 0xe5, 0x62, 0x3e, 0x3a, 0x80, 0x3f, 0x3e,
  0xeb, 0x0d, 0x49, 0x3e, 0x1f, 0xff, 0x19, 0x3e, 0x3c, 0xe1, 0x29, 0x3e,
  0x4b, 0x34, 0x34, 0x3e, 0xa0, 0xa8, 0x65, 0x3e, 0x02, 0x66, 0x55, 0x3e,
  0xff, 0x62, 0x68, 0x3b, 0x31, 0xcf, 0x5a, 0x3e, 0x84, 0x8a, 0x23, 0xbe,
  0xd3, 0xdb, 0x25, 0x3e, 0xed, 0x3b, 0x5d, 0x3e, 0x40, 0xdb, 0x63, 0x3e,
  0xce, 0x5b, 0x7c, 0x3e, 0x26, 0xbc, 0x2e, 0x3e, 0xfc, 0xcb, 0x59, 0x3e,
  0x7e, 0xa7, 0x69, 0x3e, 0x1b, 0x77, 0x53, 0x3e, 0xf8, 0xab, 0x33, 0x3e,
  0xde, 0xc7, 0x59, 0x3e, 0x21, 0x7e, 0x27, 0x3e, 0x91, 0x30, 0x27, 0xbd,
  0x15, 0x27, 0x53, 0x3e, 0xce, 0x0c, 0x7b, 0x3e, 0x8d, 0x1b, 0x1c, 0x3e,
  0x5f, 0xe5, 0x70, 0x3e, 0xca, 0x35, 0x8b, 0x3e, 0x4c, 0x03, 0x5f, 0x3e,
  0xb9, 0xfa, 0x8f, 0x3e, 0x9b, 0x0f, 0x85, 0x3e, 0x32, 0x97, 0xbc, 0xbd,
  0x53, 0xc1, 0x19, 0xbd, 0xbd, 0xa7, 0x44, 0x3e, 0x01, 0x37, 0x2c, 0x3e,
  0x58, 0x50, 0xe1, 0xbd, 0x5d, 0x64, 0x7e, 0x3e, 0xb0, 0x2c, 0x70, 0x3e,
  0x55, 0xbb, 0x39, 0x3e, 0xb2, 0x06, 0x27, 0x3e, 0x78, 0xc6, 0x87, 0x3e,
  0x0d, 0x52, 0x55, 0x3e, 0x24, 0xab, 0x64, 0x3e, 0xd5, 0x92, 0x50, 0x3e,
  0xdd, 0x89, 0xce, 0x3d, 0xa2, 0xb5, 0xe0, 0xbd, 0xd3, 0x36, 0x81, 0x3e,
  0xb8, 0x21, 0x32, 0xbd, 0x64, 0xc8, 0x57, 0x3e, 0x57, 0x06, 0x19, 0x3e,
  0xe3, 0xec, 0x46, 0x3e, 0x60, 0xef, 0x7f, 0x3e, 0xdf, 0x5e, 0x42, 0x3e,
  0xa4, 0x74, 0x66, 0x3e, 0x60, 0xf4, 0x64, 0x3e, 0x83, 0xf0, 0xe3, 0x3d,
  0x6f, 0xab, 0x58, 0x3e, 0x92, 0x71, 0x67, 0x3e, 0x05, 0x8c, 0x65, 0x3e,
  0x6f, 0xc2, 0x8f, 0x3e, 0xa5, 0x80, 0x8d, 0x3e, 0xa2, 0xff, 0xff, 0xff,
  0x04, 0x00, 0x00, 0x00, 0x04, 0x00, 0x00, 0x00, 0x4a, 0x7b, 0xdb, 0x3d,
  0xb2, 0xff, 0xff, 0xff, 0x04, 0x00, 0x00, 0x00, 0x40, 0x00, 0x00, 0x00,
  0xd4, 0x06, 0xfc, 0x3d, 0xb0, 0xcd, 0x81, 0xbd, 0xa9, 0xdc, 0x09, 0x3e,
  0xa7, 0x22, 0x0b, 0xbd, 0xb5, 0xa2, 0xa9, 0xbc, 0x1f, 0x08, 0x26, 0x3e,
  0xd2, 0xaa, 0x11, 0x3e, 0x25, 0x4e, 0x8e, 0xbc, 0x85, 0x6a, 0x8c, 0xbc,
  0x93, 0x5e, 0xa6, 0x3d, 0x4f, 0xe9, 0x9d, 0xbc, 0x62, 0x31, 0x2b, 0x3e,
  0x47, 0x2d, 0x75, 0xbd, 0xe3, 0x3d, 0x81, 0xbd, 0x0e, 0xd1, 0x22, 0xbd,
  0x16, 0x5a, 0xea, 0x3d, 0x00, 0x00, 0x06, 0x00, 0x08, 0x00, 0x04, 0x00,
  0x06, 0x00, 0x00, 0x00, 0x04, 0x00, 0x00, 0x00, 0x80, 0x00, 0x00, 0x00,
  0xdb, 0xb7, 0x1e, 0x3e, 0xbf, 0x1d, 0x70, 0xbc, 0x1e, 0xdc, 0x1f, 0x3e,
  0xaa, 0x37, 0x2b, 0x3e, 0x45, 0x48, 0xf7, 0xbc, 0xbc, 0x25, 0x8c, 0xbc,
  0xe6, 0xda, 0x1f, 0x3e, 0x36, 0x91, 0x1c, 0xbd, 0xc8, 0x21, 0xc8, 0xbc,
  0xa0, 0xc5, 0xd4, 0xbc, 0x1b, 0xc4, 0x98, 0xbc, 0x73, 0x92, 0xa5, 0xbc,
  0xa9, 0x1b, 0x24, 0x3e, 0x6e, 0x55, 0xb9, 0xbd, 0x0f, 0xf0, 0x3d, 0x3e,
  0xa5, 0x6d, 0xd4, 0x3d, 0x81, 0x72, 0x09, 0xbd, 0x99, 0xe0, 0xc2, 0xbc,
  0xbb, 0xa2, 0x13, 0x3e, 0x5d, 0x0f, 0x19, 0x3e, 0x9b, 0x2c, 0x1b, 0x3e,
  0x27, 0x1e, 0xfe, 0x3d, 0x35, 0x3d, 0x97, 0xbd, 0x20, 0x96, 0x0b, 0x3e,
  0x98, 0xc3, 0x15, 0xbd, 0x5e, 0x61, 0x4c, 0xbd, 0xe5, 0x1c, 0x1b, 0x3e,
  0x00, 0x00, 0x00, 0x00, 0x7c, 0xbd, 0x29, 0x3e, 0x03, 0x62, 0x58, 0xbc,
  0xd7, 0x59, 0xdc, 0x3c, 0x7a, 0x4d, 0x3c, 0x3e, 0xb4, 0xf9, 0xff, 0xff,
  0xb8, 0xf9, 0xff, 0xff, 0x0f, 0x00, 0x00, 0x00, 0x4d, 0x4c, 0x49, 0x52,
  0x20, 0x43, 0x6f, 0x6e, 0x76, 0x65, 0x72, 0x74, 0x65, 0x64, 0x2e, 0x00,
  0x01, 0x00, 0x00, 0x00, 0x14, 0x00, 0x00, 0x00, 0x00, 0x00, 0x0e, 0x00,
  0x18, 0x00, 0x14, 0x00, 0x10, 0x00, 0x0c, 0x00, 0x08, 0x00, 0x04, 0x00,
  0x0e, 0x00, 0x00, 0x00, 0x14, 0x00, 0x00, 0x00, 0x1c, 0x00, 0x00, 0x00,
  0x10, 0x01, 0x00, 0x00, 0x14, 0x01, 0x00, 0x00, 0x18, 0x01, 0x00, 0x00,
  0x04, 0x00, 0x00, 0x00, 0x6d, 0x61, 0x69, 0x6e, 0x00, 0x00, 0x00, 0x00,
  0x04, 0x00, 0x00, 0x00, 0xb8, 0x00, 0x00, 0x00, 0x70, 0x00, 0x00, 0x00,
  0x38, 0x00, 0x00, 0x00, 0x04, 0x00, 0x00, 0x00, 0x66, 0xff, 0xff, 0xff,
  0x10, 0x00, 0x00, 0x00, 0x00, 0x00, 0x00, 0x08, 0x0c, 0x00, 0x00, 0x00,
  0x10, 0x00, 0x00, 0x00, 0x34, 0xfa, 0xff, 0xff, 0x01, 0x00, 0x00, 0x00,
  0x0c, 0x00, 0x00, 0x00, 0x03, 0x00, 0x00, 0x00, 0x0b, 0x00, 0x00, 0x00,
  0x08, 0x00, 0x00, 0x00, 0x03, 0x00, 0x00, 0x00, 0x96, 0xff, 0xff, 0xff,
  0x10, 0x00, 0x00, 0x00, 0x00, 0x00, 0x00, 0x08, 0x10, 0x00, 0x00, 0x00,
  0x14, 0x00, 0x00, 0x00, 0x86, 0xff, 0xff, 0xff, 0x00, 0x00, 0x00, 0x01,
  0x01, 0x00, 0x00, 0x00, 0x0b, 0x00, 0x00, 0x00, 0x03, 0x00, 0x00, 0x00,
  0x0a, 0x00, 0x00, 0x00, 0x07, 0x00, 0x00, 0x00, 0x02, 0x00, 0x00, 0x00,
  0xca, 0xff, 0xff, 0xff, 0x10, 0x00, 0x00, 0x00, 0x00, 0x00, 0x00, 0x08,
  0x10, 0x00, 0x00, 0x00, 0x14, 0x00, 0x00, 0x00, 0xba, 0xff, 0xff, 0xff,
  0x00, 0x00, 0x00, 0x01, 0x01, 0x00, 0x00, 0x00, 0x0a, 0x00, 0x00, 0x00,
  0x03, 0x00, 0x00, 0x00, 0x09, 0x00, 0x00, 0x00, 0x06, 0x00, 0x00, 0x00,
  0x01, 0x00, 0x00, 0x00, 0x00, 0x00, 0x0e, 0x00, 0x16, 0x00, 0x00, 0x00,
  0x10, 0x00, 0x0c, 0x00, 0x0b, 0x00, 0x04, 0x00, 0x0e, 0x00, 0x00, 0x00,
  0x18, 0x00, 0x00, 0x00, 0x00, 0x00, 0x00, 0x08, 0x18, 0x00, 0x00, 0x00,
  0x1c, 0x00, 0x00, 0x00, 0x00, 0x00, 0x06, 0x00, 0x08, 0x00, 0x07, 0x00,
  0x06, 0x00, 0x00, 0x00, 0x00, 0x00, 0x00, 0x01, 0x01, 0x00, 0x00, 0x00,
  0x09, 0x00, 0x00, 0x00, 0x03, 0x00, 0x00, 0x00, 0x00, 0x00, 0x00, 0x00,
  0x05, 0x00, 0x00, 0x00, 0x04, 0x00, 0x00, 0x00, 0x01, 0x00, 0x00, 0x00,
  0x0c, 0x00, 0x00, 0x00, 0x01, 0x00, 0x00, 0x00, 0x00, 0x00, 0x00, 0x00,
  0x0d, 0x00, 0x00, 0x00, 0xc0, 0x04, 0x00, 0x00, 0x50, 0x04, 0x00, 0x00,
  0xe0, 0x03, 0x00, 0x00, 0x88, 0x03, 0x00, 0x00, 0x34, 0x03, 0x00, 0x00,
  0xec, 0x02, 0x00, 0x00, 0xa0, 0x02, 0x00, 0x00, 0x54, 0x02, 0x00, 0x00,
  0x08, 0x02, 0x00, 0x00, 0x80, 0x01, 0x00, 0x00, 0xf0, 0x00, 0x00, 0x00,
  0x60, 0x00, 0x00, 0x00, 0x04, 0x00, 0x00, 0x00, 0x8a, 0xfb, 0xff, 0xff,
  0x00, 0x00, 0x00, 0x01, 0x14, 0x00, 0x00, 0x00, 0x1c, 0x00, 0x00, 0x00,
  0x1c, 0x00, 0x00, 0x00, 0x0d, 0x00, 0x00, 0x00, 0x34, 0x00, 0x00, 0x00,
  0x02, 0x00, 0x00, 0x00, 0xff, 0xff, 0xff, 0xff, 0x01, 0x00, 0x00, 0x00,
  0x74, 0xfb, 0xff, 0xff, 0x19, 0x00, 0x00, 0x00, 0x53, 0x74, 0x61, 0x74,
  0x65, 0x66, 0x75, 0x6c, 0x50, 0x61, 0x72, 0x74, 0x69, 0x74, 0x69, 0x6f,
  0x6e, 0x65, 0x64, 0x43, 0x61, 0x6c, 0x6c, 0x3a, 0x30, 0x00, 0x00, 0x00,
  0x02, 0x00, 0x00, 0x00, 0x01, 0x00, 0x00, 0x00, 0x01, 0x00, 0x00, 0x00,
  0xe2, 0xfb, 0xff, 0xff, 0x00, 0x00, 0x00, 0x01, 0x14, 0x00, 0x00, 0x00,
  0x1c, 0x00, 0x00, 0x00, 0x1c, 0x00, 0x00, 0x00, 0x0c, 0x00, 0x00, 0x00,
  0x68, 0x00, 0x00, 0x00, 0x02, 0x00, 0x00, 0x00, 0xff, 0xff, 0xff, 0xff,
  0x10, 0x00, 0x00, 0x00, 0xcc, 0xfb, 0xff, 0xff, 0x4c, 0x00, 0x00, 0x00,
  0x73, 0x65, 0x71, 0x75, 0x65, 0x6e, 0x74, 0x69, 0x61, 0x6c, 0x2f, 0x64,
  0x65, 0x6e, 0x73, 0x65, 0x5f, 0x32, 0x2f, 0x4d, 0x61, 0x74, 0x4d, 0x75,
  0x6c, 0x3b, 0x73, 0x65, 0x71, 0x75, 0x65, 0x6e, 0x74, 0x69, 0x61, 0x6c,
  0x2f, 0x64, 0x65, 0x6e, 0x73, 0x65, 0x5f, 0x32, 0x2f, 0x52, 0x65, 0x6c,
  0x75, 0x3b, 0x73, 0x65, 0x71, 0x75, 0x65, 0x6e, 0x74, 0x69, 0x61, 0x6c,
  0x2f, 0x64, 0x65, 0x6e, 0x73, 0x65, 0x5f, 0x32, 0x2f, 0x42, 0x69, 0x61,
  0x73, 0x41, 0x64, 0x64, 0x00, 0x00, 0x00, 0x00, 0x02, 0x00, 0x00, 0x00,
  0x01, 0x00, 0x00, 0x00, 0x10, 0x00, 0x00, 0x00, 0x6e, 0xfc, 0xff, 0xff,
  0x00, 0x00, 0x00, 0x01, 0x14, 0x00, 0x00, 0x00, 0x1c, 0x00, 0x00, 0x00,
  0x1c, 0x00, 0x00, 0x00, 0x0b, 0x00, 0x00, 0x00, 0x68, 0x00, 0x00, 0x00,
  0x02, 0x00, 0x00, 0x00, 0xff, 0xff, 0xff, 0xff, 0x20, 0x00, 0x00, 0x00,
  0x58, 0xfc, 0xff, 0xff, 0x4c, 0x00, 0x00, 0x00, 0x73, 0x65, 0x71, 0x75,
  0x65, 0x6e, 0x74, 0x69, 0x61, 0x6c, 0x2f, 0x64, 0x65, 0x6e, 0x73, 0x65,
  0x5f, 0x31, 0x2f, 0x4d, 0x61, 0x74, 0x4d, 0x75, 0x6c, 0x3b, 0x73, 0x65,
  0x71, 0x75, 0x65, 0x6e, 0x74, 0x69, 0x61, 0x6c, 0x2f, 0x64, 0x65, 0x6e,
  0x73, 0x65, 0x5f, 0x31, 0x2f, 0x52, 0x65, 0x6c, 0x75, 0x3b, 0x73, 0x65,
  0x71, 0x75, 0x65, 0x6e, 0x74, 0x69, 0x61, 0x6c, 0x2f, 0x64, 0x65, 0x6e,
  0x73, 0x65, 0x5f, 0x31, 0x2f, 0x42, 0x69, 0x61, 0x73, 0x41, 0x64, 0x64,
  0x00, 0x00, 0x00, 0x00, 0x02, 0x00, 0x00, 0x00, 0x01, 0x00, 0x00, 0x00,
  0x20, 0x00, 0x00, 0x00, 0xfa, 0xfc, 0xff, 0xff, 0x00, 0x00, 0x00, 0x01,
  0x14, 0x00, 0x00, 0x00, 0x1c, 0x00, 0x00, 0x00, 0x1c, 0x00, 0x00, 0x00,
  0x0a, 0x00, 0x00, 0x00, 0x60, 0x00, 0x00, 0x00, 0x02, 0x00, 0x00, 0x00,
  0xff, 0xff, 0xff, 0xff, 0x40, 0x00, 0x00, 0x00, 0xe4, 0xfc, 0xff, 0xff,
  0x46, 0x00, 0x00, 0x00, 0x73, 0x65, 0x71, 0x75, 0x65, 0x6e, 0x74, 0x69,
  0x61, 0x6c, 0x2f, 0x64, 0x65, 0x6e, 0x73, 0x65, 0x2f, 0x4d, 0x61, 0x74,
  0x4d, 0x75, 0x6c, 0x3b, 0x73, 0x65, 0x71, 0x75, 0x65, 0x6e, 0x74, 0x69,
  0x61, 0x6c, 0x2f, 0x64, 0x65, 0x6e, 0x73, 0x65, 0x2f, 0x52, 0x65, 0x6c,
  0x75, 0x3b, 0x73, 0x65, 0x71, 0x75, 0x65, 0x6e, 0x74, 0x69, 0x61, 0x6c,
  0x2f, 0x64, 0x65, 0x6e, 0x73, 0x65, 0x2f, 0x42, 0x69, 0x61, 0x73, 0x41,
  0x64, 0x64, 0x00, 0x00, 0x02, 0x00, 0x00, 0x00, 0x01, 0x00, 0x00, 0x00,
  0x40, 0x00, 0x00, 0x00, 0xea, 0xfd, 0xff, 0xff, 0x00, 0x00, 0x00, 0x01,
  0x10, 0x00, 0x00, 0x00, 0x10, 0x00, 0x00, 0x00, 0x09, 0x00, 0x00, 0x00,
  0x28, 0x00, 0x00, 0x00, 0x58, 0xfd, 0xff, 0xff, 0x19, 0x00, 0x00, 0x00,
  0x73, 0x65, 0x71, 0x75, 0x65, 0x6e, 0x74, 0x69, 0x61, 0x6c, 0x2f, 0x64,
  0x65, 0x6e, 0x73, 0x65, 0x5f, 0x33, 0x2f, 0x4d, 0x61, 0x74, 0x4d, 0x75,
  0x6c, 0x00, 0x00, 0x00, 0x02, 0x00, 0x00, 0x00, 0x01, 0x00, 0x00, 0x00,
  0x10, 0x00, 0x00, 0x00, 0x32, 0xfe, 0xff, 0xff, 0x00, 0x00, 0x00, 0x01,
  0x10, 0x00, 0x00, 0x00, 0x10, 0x00, 0x00, 0x00, 0x08, 0x00, 0x00, 0x00,
  0x28, 0x00, 0x00, 0x00, 0xa0, 0xfd, 0xff, 0xff, 0x19, 0x00, 0x00, 0x00,
  0x73, 0x65, 0x71, 0x75, 0x65, 0x6e, 0x74, 0x69, 0x61, 0x6c, 0x2f, 0x64,
  0x65, 0x6e, 0x73, 0x65, 0x5f, 0x32, 0x2f, 0x4d, 0x61, 0x74, 0x4d, 0x75,
  0x6c, 0x00, 0x00, 0x00, 0x02, 0x00, 0x00, 0x00, 0x10, 0x00, 0x00, 0x00,
  0x20, 0x00, 0x00, 0x00, 0x7a, 0xfe, 0xff, 0xff, 0x00, 0x00, 0x00, 0x01,
  0x10, 0x00, 0x00, 0x00, 0x10, 0x00, 0x00, 0x00, 0x07, 0x00, 0x00, 0x00,
  0x28, 0x00, 0x00, 0x00, 0xe8, 0xfd, 0xff, 0xff, 0x19, 0x00, 0x00, 0x00,
  0x73, 0x65, 0x71, 0x75, 0x65, 0x6e, 0x74, 0x69, 0x61, 0x6c, 0x2f, 0x64,
  0x65, 0x6e, 0x73, 0x65, 0x5f, 0x31, 0x2f, 0x4d, 0x61, 0x74, 0x4d, 0x75,
  0x6c, 0x00, 0x00, 0x00, 0x02, 0x00, 0x00, 0x00, 0x20, 0x00, 0x00, 0x00,
  0x40, 0x00, 0x00, 0x00, 0xc2, 0xfe, 0xff, 0xff, 0x00, 0x00, 0x00, 0x01,
  0x10, 0x00, 0x00, 0x00, 0x10, 0x00, 0x00, 0x00, 0x06, 0x00, 0x00, 0x00,
  0x24, 0x00, 0x00, 0x00, 0x30, 0xfe, 0xff, 0xff, 0x17, 0x00, 0x00, 0x00,
  0x73, 0x65, 0x71, 0x75, 0x65, 0x6e, 0x74, 0x69, 0x61, 0x6c, 0x2f, 0x64,
  0x65, 0x6e, 0x73, 0x65, 0x2f, 0x4d, 0x61, 0x74, 0x4d, 0x75, 0x6c, 0x00,
  0x02, 0x00, 0x00, 0x00, 0x40, 0x00, 0x00, 0x00, 0x05, 0x00, 0x00, 0x00,
  0x06, 0xff, 0xff, 0xff, 0x00, 0x00, 0x00, 0x01, 0x10, 0x00, 0x00, 0x00,
  0x10, 0x00, 0x00, 0x00, 0x05, 0x00, 0x00, 0x00, 0x34, 0x00, 0x00, 0x00,
  0x74, 0xfe, 0xff, 0xff, 0x27, 0x00, 0x00, 0x00, 0x73, 0x65, 0x71, 0x75,
  0x65, 0x6e, 0x74, 0x69, 0x61, 0x6c, 0x2f, 0x64, 0x65, 0x6e, 0x73, 0x65,
  0x2f, 0x42, 0x69, 0x61, 0x73, 0x41, 0x64, 0x64, 0x2f, 0x52, 0x65, 0x61,
  0x64, 0x56, 0x61, 0x72, 0x69, 0x61, 0x62, 0x6c, 0x65, 0x4f, 0x70, 0x00,
  0x01, 0x00, 0x00, 0x00, 0x40, 0x00, 0x00, 0x00, 0x56, 0xff, 0xff, 0xff,
  0x00, 0x00, 0x00, 0x01, 0x10, 0x00, 0x00, 0x00, 0x10, 0x00, 0x00, 0x00,
  0x04, 0x00, 0x00, 0x00, 0x38, 0x00, 0x00, 0x00, 0xc4, 0xfe, 0xff, 0xff,
  0x29, 0x00, 0x00, 0x00, 0x73, 0x65, 0x71, 0x75, 0x65, 0x6e, 0x74, 0x69,
  0x61, 0x6c, 0x2f, 0x64, 0x65, 0x6e, 0x73, 0x65, 0x5f, 0x33, 0x2f, 0x42,
  0x69, 0x61, 0x73, 0x41, 0x64, 0x64, 0x2f, 0x52, 0x65, 0x61, 0x64, 0x56,
  0x61, 0x72, 0x69, 0x61, 0x62, 0x6c, 0x65, 0x4f, 0x70, 0x00, 0x00, 0x00,
  0x01, 0x00, 0x00, 0x00, 0x01, 0x00, 0x00, 0x00, 0xaa, 0xff, 0xff, 0xff,
  0x00, 0x00, 0x00, 0x01, 0x10, 0x00, 0x00, 0x00, 0x10, 0x00, 0x00, 0x00,
  0x03, 0x00, 0x00, 0x00, 0x38, 0x00, 0x00, 0x00, 0x18, 0xff, 0xff, 0xff,
  0x29, 0x00, 0x00, 0x00, 0x73, 0x65, 0x71, 0x75, 0x65, 0x6e, 0x74, 0x69,
  0x61, 0x6c, 0x2f, 0x64, 0x65, 0x6e, 0x73, 0x65, 0x5f, 0x32, 0x2f, 0x42,
  0x69, 0x61, 0x73, 0x41, 0x64, 0x64, 0x2f, 0x52, 0x65, 0x61, 0x64, 0x56,
  0x61, 0x72, 0x69, 0x61, 0x62, 0x6c, 0x65, 0x4f, 0x70, 0x00, 0x00, 0x00,
  0x01, 0x00, 0x00, 0x00, 0x10, 0x00, 0x00, 0x00, 0x00, 0x00, 0x16, 0x00,
  0x18, 0x00, 0x14, 0x00, 0x00, 0x00, 0x10, 0x00, 0x0c, 0x00, 0x08, 0x00,
  0x00, 0x00, 0x00, 0x00, 0x00, 0x00, 0x07, 0x00, 0x16, 0x00, 0x00, 0x00,
  0x00, 0x00, 0x00, 0x01, 0x10, 0x00, 0x00, 0x00, 0x10, 0x00, 0x00, 0x00,
  0x02, 0x00, 0x00, 0x00, 0x38, 0x00, 0x00, 0x00, 0x84, 0xff, 0xff, 0xff,
  0x29, 0x00, 0x00, 0x00, 0x73, 0x65, 0x71, 0x75, 0x65, 0x6e, 0x74, 0x69,
  0x61, 0x6c, 0x2f, 0x64, 0x65, 0x6e, 0x73, 0x65, 0x5f, 0x31, 0x2f, 0x42,
  0x69, 0x61, 0x73, 0x41, 0x64, 0x64, 0x2f, 0x52, 0x65, 0x61, 0x64, 0x56,
  0x61, 0x72, 0x69, 0x61, 0x62, 0x6c, 0x65, 0x4f, 0x70, 0x00, 0x00, 0x00,
  0x01, 0x00, 0x00, 0x00, 0x20, 0x00, 0x00, 0x00, 0x00, 0x00, 0x16, 0x00,
  0x1c, 0x00, 0x18, 0x00, 0x00, 0x00, 0x14, 0x00, 0x10, 0x00, 0x0c, 0x00,
  0x00, 0x00, 0x00, 0x00, 0x08, 0x00, 0x07, 0x00, 0x16, 0x00, 0x00, 0x00,
  0x00, 0x00, 0x00, 0x01, 0x14, 0x00, 0x00, 0x00, 0x20, 0x00, 0x00, 0x00,
  0x20, 0x00, 0x00, 0x00, 0x01, 0x00, 0x00, 0x00, 0x3c, 0x00, 0x00, 0x00,
  0x02, 0x00, 0x00, 0x00, 0xff, 0xff, 0xff, 0xff, 0x05, 0x00, 0x00, 0x00,
  0x04, 0x00, 0x04, 0x00, 0x04, 0x00, 0x00, 0x00, 0x1d, 0x00, 0x00, 0x00,
  0x73, 0x65, 0x72, 0x76, 0x69, 0x6e, 0x67, 0x5f, 0x64, 0x65, 0x66, 0x61,
  0x75, 0x6c, 0x74, 0x5f, 0x64, 0x65, 0x6e, 0x73, 0x65, 0x5f, 0x69, 0x6e,
  0x70, 0x75, 0x74, 0x3a, 0x30, 0x00, 0x00, 0x00, 0x02, 0x00, 0x00, 0x00,
  0x01, 0x00, 0x00, 0x00, 0x05, 0x00, 0x00, 0x00, 0x01, 0x00, 0x00, 0x00,
  0x10, 0x00, 0x00, 0x00, 0x0c, 0x00, 0x0c, 0x00, 0x0b, 0x00, 0x00, 0x00,
  0x00, 0x00, 0x04, 0x00, 0x0c, 0x00, 0x00, 0x00, 0x09, 0x00, 0x00, 0x00,
  0x00, 0x00, 0x00, 0x09
};
const int breathing_rate_model_tflite_len = 14320;
